[PAD]	0
[UNK]	0
[BOS]	0
[EOS]	0
[SEP]	0
[CLS]	0
[MASK]	0
.	-3.30095
,	-3.68247
의	-3.96748
▁	-4.44925
는	-4.46648
)	-4.48509
에	-4.52132
(	-4.54141
년	-4.56972
을	-4.58457
이	-4.79505
은	-4.80986
가	-4.93908
를	-4.94293
로	-5.18773
에서	-5.25413
월	-5.26981
과	-5.34033
▁있다	-5.49706
일	-5.53073
와	-5.53775
으로	-5.54686
▁이	-5.64591
이다	-5.68281
인	-5.69468
도	-5.71793
한	-5.85494
▁수	-5.88041
▁1	-6.00054
▁2	-6.0537
고	-6.14085
▁3	-6.21848
▁그	-6.24124
▁있는	-6.38707
▁제	-6.40348
하는	-6.40875
하고	-6.41973
"	-6.44336
▁"	-6.45263
▁4	-6.45993
지	-6.48488
기	-6.56555
▁《	-6.57108
다	-6.58785
▁5	-6.60416
하여	-6.61202
했다	-6.61946
하였다	-6.62115
▁(	-6.68437
시	-6.69199
'	-6.70453
나	-6.7124
▁한	-6.72061
할	-6.73774
해	-6.73927
만	-6.7568
▁'	-6.76978
▁6	-6.77246
사	-6.8004
-	-6.80251
▁10	-6.81641
》	-6.83064
▁중	-6.83765
서	-6.84159
자	-6.84183
대	-6.8489
▁8	-6.86474
▁7	-6.87346
·	-6.89726
▁~	-6.9108
년에	-6.91706
▁후	-6.92966
▁한다	-6.93002
에게	-6.93444
리	-6.97351
▁이후	-6.97429
▁9	-6.97706
▁등	-6.98495
된	-6.99079
스	-6.99686
적	-6.99948
▁그는	-7.00281
▁12	-7.01924
성	-7.03134
▁되었다	-7.03664
주	-7.03708
▁다른	-7.05861
▁대한	-7.06264
▁및	-7.06768
라	-7.07404
되었다	-7.08227
▁같은	-7.08358
▁두	-7.09493
▁때	-7.13947
한다	-7.14151
▁전	-7.14589
▁11	-7.14947
하게	-7.1663
),	-7.17403
부	-7.17978
수	-7.18596
2	-7.18971
▁또한	-7.203
어	-7.21268
()	-7.21398
▁함께	-7.2148
▁)	-7.22548
이며	-7.23004
▁위해	-7.23811
차	-7.26785
에는	-7.26947
에서는	-7.27371
개	-7.27784
상	-7.286
화	-7.29559
면	-7.29583
명	-7.29739
세	-7.2988
되어	-7.33702
라는	-7.34127
제	-7.35968
게	-7.37221
1	-7.3792
진	-7.38748
동	-7.38768
:	-7.39001
▁주	-7.40024
▁그의	-7.40179
▁때문에	-7.40191
하기	-7.40611
라고	-7.41348
▁그러나	-7.41368
▁가장	-7.42112
▁미국	-7.42209
아	-7.42258
▁것을	-7.43725
들이	-7.44165
군	-7.44289
전	-7.44377
▁또는	-7.44595
장	-7.44875
적인	-7.45167
▁더	-7.45666
▁formula	-7.46326
▁있으며	-7.46327
비	-7.46329
조	-7.47152
▁일본	-7.47404
s	-7.47406
구	-7.47879
▁따라	-7.48129
호	-7.48512
정	-7.48526
▁것으로	-7.48998
까지	-7.49247
▁시	-7.49299
m	-7.49599
회	-7.49723
선	-7.50289
소	-7.50671
미	-7.50864
▁했다	-7.51795
원	-7.51849
산	-7.51999
우	-7.52623
▁그리고	-7.52727
야	-7.53249
▁된다	-7.53507
트	-7.53581
▁있었다	-7.53701
오	-7.53972
▁오	-7.54047
▁당시	-7.54294
이나	-7.54452
들은	-7.54937
하며	-7.57193
▁16	-7.57533
▁15	-7.57736
▁의해	-7.58686
▁신	-7.59773
마	-7.60761
▁아	-7.62004
▁통해	-7.62151
▁것이다	-7.62221
보	-7.62433
▁많은	-7.6288
일에	-7.63609
드	-7.63777
신	-7.64214
▁비	-7.64415
▁대	-7.64894
타	-7.65701
▁‘	-7.65865
치	-7.65967
▁다음과	-7.66134
하지	-7.66177
▁다시	-7.68008
들을	-7.68542
▁정	-7.69042
▁구	-7.70735
▁사	-7.70854
▁하는	-7.71195
위	-7.71286
▁해	-7.71383
3	-7.71396
▁17	-7.72297
니	-7.72347
▁첫	-7.72354
▁대한민국의	-7.72676
▁유	-7.73012
노	-7.73103
이라는	-7.73543
▁역	-7.73762
▁고	-7.74438
▁것이	-7.7463
천	-7.74674
▁현재	-7.75333
/	-7.75487
현	-7.75848
▁약	-7.76121
▁20	-7.76462
▁데	-7.76474
’	-7.76606
▁큰	-7.77828
▁세	-7.78693
▁성	-7.78893
형	-7.79159
▁경우	-7.79945
▁장	-7.80185
▁소	-7.80462
하	-7.80537
▁여러	-7.80724
계	-7.81004
당	-7.81347
▁모두	-7.81352
▁14	-7.81625
▁가	-7.81806
▁하였다	-7.82493
▁세계	-7.8263
▁모든	-7.83141
개의	-7.83437
하면서	-7.836
용	-7.84121
며	-7.8441
코	-7.84492
▁총	-7.8453
▁한국	-7.85153
식	-7.85485
▁대한민국	-7.8605
▁다음	-7.86322
무	-7.86426
토	-7.86556
▁조	-7.86595
▁강	-7.86734
문	-7.86854
▁다	-7.87588
이라고	-7.87686
파	-7.87832
경	-7.88612
▁등이	-7.88935
▁미	-7.89038
되는	-7.89717
되고	-7.90026
▁위한	-7.90114
중	-7.90119
했고	-7.90162
포	-7.90524
카	-7.90968
▁도	-7.911
▁할	-7.91275
하였고	-7.91695
▁지	-7.92786
였다	-7.93181
▁자신의	-7.93504
공	-7.93546
▁등의	-7.9362
▁내	-7.93754
유	-7.93769
관	-7.93994
▁13	-7.9411
국	-7.94115
▁양	-7.94124
레	-7.95507
▁것은	-7.95545
즈	-7.95659
이었다	-7.95662
▁마	-7.96045
▁뒤	-7.96429
▁안	-7.97074
모	-7.97192
바	-7.97208
데	-7.97424
▁같다	-7.97478
▁부	-7.97946
년부터	-7.98037
분	-7.9855
강	-7.99046
적으로	-7.99698
루	-7.99715
들	-7.99946
▁서	-8.00831
▁원	-8.01071
된다	-8.01286
▁축구	-8.01338
크	-8.01437
▁일	-8.0194
▁-	-8.02216
▁이러한	-8.02263
km	-8.02316
안	-8.02506
년에는	-8.02569
▁18	-8.02657
▁미국의	-8.03004
영	-8.03021
▁영화	-8.03685
▁알	-8.03848
키	-8.04031
석	-8.04072
▁하지만	-8.0426
여	-8.05146
▁바	-8.05195
르	-8.05576
티	-8.06031
▁〈	-8.06451
▁기	-8.06496
▁A	-8.06616
▁대해	-8.06735
▁위치한	-8.07011
▁말	-8.07053
▁등을	-8.07227
들의	-8.07331
▁선	-8.07877
▁나	-8.08384
프	-8.08565
>	-8.08891
단	-8.09042
네	-8.09086
▁동안	-8.09637
보다	-8.09898
▁각	-8.09976
▁시즌	-8.10735
▁30	-8.10735
재	-8.11192
▁산	-8.11347
▁중국	-8.1147
란	-8.11534
▁2010	-8.12307
디	-8.12601
간	-8.13433
▁B	-8.13553
▁무	-8.13622
▁반	-8.13684
▁보	-8.13763
연	-8.13859
후	-8.14866
4	-8.15069
히	-8.15289
양	-8.1555
▁상	-8.1564
부터	-8.16085
학	-8.16106
법	-8.16181
▁조선	-8.16877
▁동	-8.17044
▁자	-8.17479
역	-8.17618
▁호	-8.17638
던	-8.18214
▁또	-8.18374
이자	-8.18396
방	-8.18658
▁이는	-8.18666
▁하	-8.18683
로서	-8.18783
▁특히	-8.19265
▁하고	-8.19347
▁리	-8.19376
▁C	-8.20247
번	-8.20333
▁되어	-8.20502
▁우	-8.20523
C	-8.20606
종	-8.21267
▁S	-8.21507
▁지역	-8.22019
▁이를	-8.22588
피	-8.22653
▁진	-8.2267
A	-8.23119
▁일부	-8.23166
▁K	-8.23689
세기	-8.23782
▁당	-8.24303
▁<	-8.24312
▁모	-8.24537
년까지	-8.24557
▁“	-8.24669
▁19	-8.24809
〉	-8.24823
권	-8.25318
체	-8.25369
로부터	-8.2546
▁노	-8.25499
▁김	-8.25552
B	-8.25722
▁같이	-8.25903
▁번째	-8.26318
▁리그	-8.26611
▁2008	-8.26664
▁된	-8.26812
실	-8.27277
▁새로운	-8.27397
▁피	-8.2752
▁카	-8.27641
했으며	-8.28051
초	-8.2814
▁경	-8.28213
교	-8.28264
이고	-8.2849
▁초	-8.28861
5	-8.28916
▁프랑스	-8.29457
▁주로	-8.29505
되었고	-8.29693
요	-8.29736
하였으며	-8.29909
▁인해	-8.30236
▁것	-8.30425
▁있고	-8.30433
월에	-8.30458
▁파	-8.30696
▁볼	-8.3076
거	-8.30847
민	-8.30879
▁잘	-8.30974
청	-8.3121
▁재	-8.31602
급	-8.31611
▁명	-8.3212
▁단	-8.32195
러	-8.32443
왕	-8.32639
▁2012	-8.32759
▁받았다	-8.32859
▁현	-8.32934
▁2011	-8.33107
▁2007	-8.33163
▁2009	-8.33579
S	-8.33587
면서	-8.33898
집	-8.33989
린	-8.34046
▁있던	-8.34088
▁라	-8.34314
▁코	-8.34359
▁즉	-8.34563
▁남	-8.3495
▁국가	-8.3496
▁아니라	-8.3499
▁매우	-8.3545
▁군	-8.35756
반	-8.36203
병	-8.36281
▁서울	-8.36681
▁2014	-8.36986
▁위	-8.36996
될	-8.37055
에도	-8.37081
승	-8.37151
배	-8.37545
▁영국	-8.3767
▁국제	-8.37923
그	-8.38083
▁가지고	-8.38389
남	-8.39237
▁이에	-8.39465
▁M	-8.39887
▁25	-8.40118
▁2013	-8.40147
▁독일	-8.40152
두	-8.40215
▁없다	-8.40243
생	-8.40633
6	-8.40962
테	-8.40967
▁어	-8.41702
▁결국	-8.41724
▁않았다	-8.41942
운	-8.42058
”	-8.42406
▁배우	-8.42496
발	-8.43144
▁있어	-8.43246
▁없는	-8.43341
▁2015	-8.43568
더	-8.43656
▁포	-8.43896
▁일본의	-8.44063
물	-8.44131
했던	-8.44205
▁배	-8.44209
▁불	-8.44313
D	-8.44419
▁게임	-8.44558
K	-8.44559
▁이탈리아	-8.45421
▁21	-8.45842
▁않고	-8.45993
질	-8.46163
▁2016	-8.46754
▁2018	-8.47261
▁F	-8.47334
▁이어	-8.47478
▁왕	-8.47781
▁박	-8.48191
▁많이	-8.48313
광	-8.48337
▁연구	-8.48373
▁영	-8.48392
류	-8.48573
▁2006	-8.48857
창	-8.49066
▁삼	-8.49308
▁타	-8.49666
▁공	-8.49712
▁주요	-8.5012
각	-8.5029
이라	-8.50315
년대	-8.50534
▁간	-8.50573
점	-8.506
▁외	-8.5088
일부터	-8.51006
▁24	-8.51531
명의	-8.51723
림	-8.51749
▁한편	-8.51954
▁연	-8.52087
▁유럽	-8.52207
t	-8.52649
터	-8.52752
▁2017	-8.52758
▁인	-8.53029
▁본	-8.53245
▁스	-8.53286
▁다양한	-8.54042
내	-8.54117
금	-8.54867
▁백	-8.54884
▁가운데	-8.54932
령	-8.55156
▁22	-8.55189
▁23	-8.55386
온	-8.55422
봉	-8.5574
량	-8.5583
▁이상	-8.55878
▁로	-8.55918
M	-8.56284
메	-8.56381
▁거의	-8.56508
판	-8.56528
▁문	-8.56767
7	-8.56925
▁만	-8.57015
되었으며	-8.57132
▁들어	-8.57159
태	-8.57255
츠	-8.57313
주의	-8.57471
하기도	-8.57519
▁따라서	-8.57836
▁음악	-8.5791
T	-8.57979
▁올림픽	-8.58451
등	-8.58678
음	-8.58697
목	-8.58841
▁P	-8.5895
")	-8.5903
▁D	-8.59089
▁수도	-8.59693
▁기준	-8.59953
▁방송	-8.59957
순	-8.60104
▁로마	-8.60108
되지	-8.60439
▁T	-8.60441
▁방	-8.60687
속	-8.6077
항	-8.60825
▁매	-8.60836
▁이름을	-8.60985
▁전쟁	-8.61025
백	-8.61144
암	-8.61444
론	-8.61693
▁여	-8.61728
▁러시아	-8.62149
▁대학	-8.62163
쿠	-8.62255
▁심	-8.62361
심	-8.62673
▁번	-8.62927
▁높은	-8.63177
▁28	-8.63199
브	-8.63368
▁영향을	-8.6344
G	-8.63474
▁작은	-8.63698
▁도시	-8.63732
▁G	-8.63918
으로부터	-8.6393
▁경기	-8.64028
▁따르면	-8.64101
▁R	-8.64297
▁선수	-8.64322
행	-8.6433
예	-8.64449
▁처음	-8.64568
▁경제	-8.64685
▁26	-8.64727
▁2005	-8.64806
하면	-8.64811
▁금	-8.65026
설	-8.65075
감	-8.6511
▁27	-8.65129
▁2000	-8.65198
들과	-8.65234
랑	-8.6539
▁네	-8.65506
▁계속	-8.65559
▁청	-8.65584
▁of	-8.65707
하다	-8.6571
▁조직	-8.6582
▁프로	-8.65939
▁여성	-8.65995
▁여자	-8.66182
19	-8.66214
저	-8.66387
P	-8.66444
불	-8.66508
F	-8.67183
▁독립	-8.67465
▁레	-8.67502
y	-8.6763
▁지방	-8.67711
▁예	-8.67981
▁않은	-8.67982
위를	-8.68071
▁가지	-8.68073
▁난	-8.68376
였던	-8.68417
▁알려져	-8.68441
▁개	-8.68474
에서도	-8.68528
케	-8.68634
▁사회	-8.68826
▁2004	-8.691
n	-8.69198
▁열린	-8.69609
복	-8.69821
▁드라마	-8.69906
본	-8.70127
▁날	-8.7026
처럼	-8.70554
희	-8.70607
번째	-8.7071
▁있는데	-8.70855
▁아들	-8.70904
▁H	-8.70949
직	-8.7146
▁2019	-8.7163
덕	-8.71762
8	-8.71776
▁교육	-8.71837
▁고려	-8.72077
▁되는	-8.7214
하자	-8.72145
▁차	-8.72158
엔	-8.72207
▁100	-8.72213
▁크게	-8.7228
곡	-8.72374
하던	-8.72444
으로서	-8.72534
▁말한다	-8.72545
▁개발	-8.72713
버	-8.72922
▁서로	-8.72938
▁사용	-8.72996
▁관한	-8.73023
려	-8.73028
▁역시	-8.73077
했지만	-8.73458
살	-8.73672
▁중요한	-8.73696
억	-8.73747
▁E	-8.74055
초등학교	-8.74193
▁발	-8.74266
▁태어났다	-8.74289
투	-8.74413
지만	-8.74683
▁열	-8.74971
▁최	-8.74982
베	-8.75202
근	-8.75211
▁뜻은	-8.75376
▁후에	-8.75581
▁않는다	-8.75584
▁29	-8.75585
와의	-8.75688
▁송	-8.75735
철	-8.7591
e	-8.76009
▁인구는	-8.76062
달	-8.76129
절	-8.76492
▁직접	-8.76968
임	-8.77054
▁종	-8.77135
▁인구	-8.77173
▁하여	-8.77351
기를	-8.77367
환	-8.77624
건	-8.78011
▁분	-8.78037
일까지	-8.78047
평	-8.78406
▁FC	-8.78426
▁몇	-8.78502
통	-8.78559
▁않는	-8.78574
▁그가	-8.78738
▁치	-8.788
▁각각	-8.78946
해서	-8.79089
▁받아	-8.79128
▁임	-8.79164
▁사이에	-8.79188
▁화	-8.79577
▁적	-8.79603
▁생산	-8.79729
▁경기도	-8.79745
족	-8.79881
해야	-8.80206
증	-8.80396
▁배우이다	-8.80489
▁거쳐	-8.80514
▁황	-8.80531
▁새	-8.80559
씨	-8.80701
▁가진	-8.8108
되면서	-8.81123
성을	-8.81234
▁존	-8.81252
▁동시에	-8.81297
너	-8.81368
▁속	-8.81445
》(	-8.81449
▁W	-8.81819
약	-8.82208
▁시작했다	-8.82269
층	-8.82468
하였으나	-8.82545
으며	-8.82647
▁대통령	-8.82746
▁토	-8.82866
▁키	-8.82981
매	-8.83104
▁2002	-8.83269
열	-8.83326
었다	-8.83426
▁달	-8.83526
▁천	-8.83535
▁어떤	-8.83618
▁북	-8.83895
▁아닌	-8.83898
탄	-8.8437
▁기술	-8.84531
R	-8.84668
▁베	-8.84675
▁운영	-8.8476
▁활동	-8.85061
▁달리	-8.85379
난	-8.85399
▁결과	-8.85623
▁역할을	-8.85641
N	-8.85687
▁대전	-8.85805
▁2003	-8.86055
명이	-8.86059
▁최고	-8.86199
▁마지막	-8.86374
준	-8.86411
▁위하여	-8.86737
10	-8.868
기도	-8.86883
▁판	-8.87113
▁윤	-8.87295
▁J	-8.87318
▁저	-8.87507
▁처음으로	-8.87707
]	-8.88067
▁텔레비전	-8.88153
했으나	-8.88198
▁지역의	-8.88302
▁최초의	-8.88495
▁기준으로	-8.88516
박	-8.88623
9	-8.88693
▁시대	-8.88739
("	-8.89074
▁의한	-8.8925
W	-8.89317
세의	-8.89523
▁보통	-8.89599
말	-8.8972
▁정치	-8.89773
▁31	-8.89971
이었던	-8.90034
▁중앙	-8.90067
처	-8.9025
▁물	-8.90283
▁자유	-8.9031
▁영화이다	-8.90407
작	-8.90469
大	-8.90521
▁음반	-8.90578
V	-8.90932
▁V	-8.90968
▁전투	-8.91375
▁시리즈	-8.91426
▁감독	-8.91462
▁「	-8.91625
▁보고	-8.91701
▁루	-8.91804
거나	-8.91805
추	-8.91838
됐다	-8.91922
▁온	-8.92022
▁대신	-8.92055
▁철도	-8.92176
길	-8.92206
표	-8.92211
▁제작	-8.92252
▁:	-8.92252
▁기록	-8.92278
▁입	-8.92501
▁혹은	-8.92817
▁있을	-8.92859
▁변	-8.93007
a	-8.93081
▁1990	-8.93095
▁L	-8.93114
▁경기에서	-8.9316
▁팀	-8.93325
▁국민	-8.93328
▁병	-8.93332
H	-8.93407
i	-8.93559
L	-8.93573
▁실	-8.93755
지는	-8.94054
▁선거	-8.94327
▁홍	-8.94429
커	-8.94483
山	-8.94664
▁대회	-8.94683
▁행정	-8.94855
▁공격	-8.94963
金	-8.95038
▁되고	-8.95059
▁건설	-8.95157
▁교	-8.95329
슈	-8.9552
▁일반적으로	-8.95538
E	-8.95662
▁요	-8.95686
」	-8.9574
시켰다	-8.96289
▁관리	-8.96353
함	-8.96416
▁애	-8.96504
▁현대	-8.96579
▁하며	-8.96787
▁채	-8.97083
스트	-8.9712
▁U	-8.97138
in	-8.97334
▁허	-8.97397
변	-8.97408
송	-8.97567
▁있다고	-8.97577
▁지원	-8.97614
색	-8.97646
▁될	-8.9793
이기도	-8.9799
력	-8.98094
락	-8.98186
▁중심으로	-8.98198
▁우승	-8.98287
▁정도	-8.98298
▁야	-8.98495
▁2020	-8.98755
▁기원전	-8.98783
▁디	-8.98788
▁이미	-8.98946
▁군사	-8.98978
▁개의	-8.99006
▁공식	-8.99224
는데	-8.99331
▁용	-8.99348
빈	-8.99664
링	-8.99674
▁하나	-8.9968
상을	-8.997
▁관련	-8.99764
▁없이	-8.99957
▁드	-9.00103
▁받은	-9.00292
▁이것은	-9.00554
▁문화	-9.00604
o	-9.00822
▁이때	-9.00898
▁자연	-9.01095
▁the	-9.01303
충	-9.01372
합	-9.01462
▁N	-9.01635
▁2001	-9.01772
리그	-9.02105
▁I	-9.02156
▁겸	-9.02195
▁만든	-9.02237
▁바로	-9.02296
▁소속	-9.02353
ing	-9.02357
립	-9.02508
▁시작	-9.02886
)·	-9.02894
▁봉	-9.03337
▁전기	-9.03353
▁감	-9.03379
호로	-9.0342
▁진행	-9.035
▁받고	-9.03535
언	-9.03607
▁정부	-9.03721
▁구성	-9.03735
er	-9.03743
▁법	-9.03876
자가	-9.03933
▁때문이다	-9.0397
▁속하는	-9.04036
▁해당	-9.04144
▁앨범	-9.04245
▁50	-9.04489
대학	-9.04649
극	-9.04871
▁컴퓨터	-9.04875
~	-9.04925
▁자신이	-9.0499
하거나	-9.05048
록	-9.05192
▁전체	-9.05243
h	-9.05402
李	-9.05578
▁석	-9.05622
편	-9.05912
시에	-9.06152
▁대학교	-9.06294
업	-9.06312
▁창	-9.06538
▁싱글	-9.06757
품	-9.0681
▁되었고	-9.06845
하는데	-9.06855
출	-9.06939
▁줄	-9.07169
▁일반	-9.07188
▁인도	-9.07221
향	-9.07431
al	-9.07474
▁아버지	-9.07603
져	-9.07654
▁권	-9.07706
▁그리스	-9.07782
페	-9.08033
▁그녀는	-9.08126
골	-9.08463
▁이런	-9.08504
▁교황	-9.08514
▁활동을	-9.08558
망	-9.08601
범	-9.08616
▁결정	-9.08624
명이다	-9.0864
▁두고	-9.08671
▁섬	-9.08752
퍼	-9.0879
▁1980	-9.08888
▁대부분의	-9.0901
있다	-9.09368
▁원래	-9.09386
들에게	-9.09435
시간	-9.09663
훈	-9.09697
외	-9.09823
▁TV	-9.10185
▁있지만	-9.10198
▁존재	-9.10201
▁초기	-9.10233
▁메	-9.10236
규	-9.10336
I	-9.10393
▁점	-9.10397
▁있어서	-9.10474
▁광	-9.10875
▁야구	-9.10877
!	-9.11025
f	-9.1109
▁순	-9.11098
▁그를	-9.1116
▁스페인	-9.11234
l	-9.11297
손	-9.11345
▁있었던	-9.11398
▁발매	-9.11404
대학교	-9.11424
▁자기	-9.11436
▁남자	-9.11492
▁1999	-9.11507
이란	-9.11806
▁별	-9.11839
▁고대	-9.11841
▁이전	-9.12163
b	-9.12168
▁이름은	-9.12178
명을	-9.12277
▁지역에	-9.12289
▁이상의	-9.12368
▁FIFA	-9.12406
삼	-9.12483
▁건	-9.12651
▁1998	-9.12677
▁태	-9.12694
cm	-9.12714
▁대하여	-9.12746
▁부산	-9.12871
래	-9.12877
▁계획	-9.12916
▁전자	-9.12943
▁아이	-9.12979
▁보인다	-9.13085
▁하나이다	-9.13106
▁그룹	-9.13112
▁서울특별시	-9.13209
▁손	-9.13265
▁최대	-9.13339
▁0	-9.13433
▁최초로	-9.13448
스타	-9.13481
▁반대	-9.13588
필	-9.13689
20	-9.13702
▁사상	-9.13768
▁잉글랜드	-9.14236
▁공화국	-9.1425
▁분류	-9.14301
▁기독교	-9.14333
mm	-9.14559
▁지정되었다	-9.14562
스는	-9.14644
▁사건	-9.14834
담	-9.14923
별	-9.14937
▁팔	-9.15024
슨	-9.15041
렌	-9.15057
격	-9.1514
읍	-9.15277
▁하다	-9.1536
▁목	-9.15381
되며	-9.15673
▁발전	-9.15708
▁전국	-9.15709
장을	-9.15943
▁데뷔	-9.1597
숙	-9.15978
▁대부분	-9.16226
하지만	-9.1623
▁살	-9.16312
▁등에	-9.16428
악	-9.16518
북	-9.1654
▁애니메이션	-9.166
c	-9.16676
en	-9.16805
▁기업	-9.17074
▁등으로	-9.17124
▁정보	-9.17143
▁어느	-9.17399
▁생활	-9.17493
▁만들어	-9.1755
▁없었다	-9.1757
▁페	-9.17591
d	-9.17754
ed	-9.17812
▁가리킨다	-9.18136
▁참	-9.18181
▁걸쳐	-9.1825
▁편	-9.18274
권을	-9.18346
런	-9.18492
▁대표	-9.18774
▁발생	-9.1897
녀	-9.19233
▁기타	-9.19492
▁이름으로	-9.19574
▁집	-9.1962
▁발표	-9.19692
▁민	-9.19746
▁이용	-9.19797
▁1997	-9.19854
▁회	-9.19986
함으로써	-9.20019
했는데	-9.20201
▁운동	-9.20204
▁관	-9.20364
▁거	-9.20436
▁출신	-9.20469
▁국	-9.20492
▁이유로	-9.20495
O	-9.2052
▁친	-9.20586
▁곡	-9.20658
▁이동	-9.20783
▁1995	-9.20842
세는	-9.20875
▁표현	-9.20953
▁시간	-9.21053
▁있게	-9.21076
▁연방	-9.21184
일에는	-9.21193
▁월드컵	-9.21233
중학교	-9.21303
▁1996	-9.21384
▁기간	-9.21424
▁사이	-9.21501
턴	-9.21555
▁계	-9.2161
▁생각	-9.21793
축	-9.21805
p	-9.22002
칸	-9.22042
▁변경	-9.22065
돌	-9.22091
풍	-9.22196
▁학교	-9.22381
년간	-9.2256
▁40	-9.22569
▁좋은	-9.22588
▁더욱	-9.22682
▁추가	-9.22896
▁도쿄	-9.22908
군의	-9.23073
▁행	-9.23131
세가	-9.23213
▁산업	-9.23319
입	-9.23489
]]	-9.23611
▁시스템	-9.23625
▁사람이	-9.23691
▁예를	-9.23874
결	-9.23916
▁노래	-9.23979
리아	-9.24026
촌	-9.2403
되기	-9.24115
▁조사	-9.24197
u	-9.24355
▁패	-9.24382
▁그들의	-9.24412
시키는	-9.2457
▁이들은	-9.24586
▁말했다	-9.24651
▁곧	-9.2478
▁쿠	-9.2481
있는	-9.24853
▁체	-9.24862
▁형	-9.24891
독	-9.24916
채	-9.2492
총	-9.25075
▁밝혔다	-9.25105
례	-9.25194
▁것이라고	-9.25232
▁아시아	-9.25234
애	-9.25285
▁귀	-9.25437
▁선수이다	-9.25509
▁이야기	-9.25718
g	-9.2582
▁O	-9.25824
졌다	-9.25842
선의	-9.25918
▁·	-9.25953
▁육군	-9.26132
▁서비스	-9.26178
고등학교	-9.26233
▁1970	-9.26245
▁이와	-9.26315
▁들	-9.26465
▁공동	-9.26474
▁폴란드	-9.26496
▁1994	-9.26572
▁길	-9.26692
▁식	-9.26817
누	-9.26868
▁민족	-9.26922
이지만	-9.26974
▁작품	-9.27039
_1	-9.27064
▁가수	-9.27096
The	-9.27158
▁맡았다	-9.27179
▁음	-9.27337
▁어머니	-9.27433
▁시절	-9.2746
들에	-9.27514
▁유지	-9.27586
문화	-9.27659
▁이들	-9.2773
머	-9.27748
옥	-9.27809
▁알려진	-9.2787
갈	-9.27973
▁불구하고	-9.27977
시켜	-9.28013
▁개인	-9.28037
▁돌	-9.28214
▁연결	-9.28317
섬	-9.28319
▁모습을	-9.28351
▁성공	-9.28352
▁1992	-9.28357
▁사람	-9.28403
▁빈	-9.2849
18	-9.2852
▁사용하는	-9.28531
▁투	-9.28566
헌	-9.28703
성이	-9.28767
0	-9.29031
▁생	-9.29044
위원회	-9.29094
▁하나의	-9.29104
릴	-9.29131
▁설립	-9.29139
▁km	-9.29209
지를	-9.29257
▁[[	-9.29322
▁하나로	-9.29375
▁슈	-9.29402
▁전에	-9.29474
▁추	-9.29482
▁현재는	-9.29703
▁철	-9.29722
▁면적은	-9.29793
▁공연	-9.29867
▁전문	-9.29905
▁공립	-9.29906
▁승강장	-9.30013
막	-9.30016
찬	-9.30153
탈	-9.3037
▁영국의	-9.30498
▁준	-9.30618
▁포함한	-9.30618
▁국내	-9.30668
▁선발	-9.30849
▁못했다	-9.30858
▁과학	-9.30934
▁하지	-9.30955
12	-9.30956
▁선택	-9.31004
▁통	-9.31122
▁향	-9.31188
▁것에	-9.31207
▁널리	-9.31216
30	-9.31248
▁의미한다	-9.31254
11	-9.31532
윤	-9.31598
▁프로그램	-9.31607
▁사이의	-9.31624
패	-9.31741
▁이듬해	-9.31794
▁표준	-9.31855
on	-9.32016
▁명의	-9.32022
술	-9.32026
▁문제	-9.32126
▁세포	-9.32352
황	-9.32358
▁종교	-9.32383
샤	-9.32584
▁제국	-9.32635
대로	-9.32756
▁포함	-9.32898
▁아래	-9.33003
▁1991	-9.33028
▁스타	-9.33107
文	-9.33144
▁쇼	-9.33285
나무	-9.33286
월부터	-9.33294
▁우주	-9.33365
▁발견	-9.33403
▁사실	-9.33434
▁많다	-9.33499
하도록	-9.33535
▁관계	-9.33567
▁않다	-9.33662
▁그들은	-9.33718
▁의하여	-9.33791
▁옛	-9.33958
▁연합	-9.34105
궁	-9.34112
▁완전히	-9.34191
▁증가	-9.34318
▁소설	-9.34407
▁비해	-9.34528
▁인간	-9.34538
▁긴	-9.3466
▁1993	-9.34742
le	-9.34812
▁평균	-9.34906
자를	-9.34941
회의	-9.35046
쇼	-9.35112
개월	-9.35165
▁확장	-9.35188
J	-9.35236
▁1960	-9.35274
▁존재한다	-9.35292
▁뉴욕	-9.3539
새	-9.35459
마다	-9.3552
▁위에	-9.35605
▁등과	-9.35629
월에는	-9.35662
▁지구	-9.35817
▁갖고	-9.35978
▁연속	-9.35981
▁통합	-9.36056
▁운행	-9.3609
익	-9.36092
▁베트남	-9.36125
▁판매	-9.36238
▁티	-9.36295
울	-9.36342
▁딸	-9.36368
▁때까지	-9.36383
▁남부	-9.36446
▁과정에서	-9.36572
▁자주	-9.36658
팀	-9.36814
▁비롯한	-9.36899
▁1988	-9.36934
▁결혼	-9.3703
▁못	-9.37091
▁정도로	-9.37284
워	-9.37592
자로	-9.3768
▁부분	-9.37708
15	-9.37739
us	-9.3778
▁현재의	-9.37891
▁있도록	-9.38059
▁남아	-9.38064
U	-9.38069
▁주의	-9.38101
▁X	-9.38168
했을	-9.38242
▁보호	-9.3831
▁마을	-9.38401
▁과거	-9.38616
▁평	-9.38872
▁암	-9.38939
▁그대로	-9.3918
경기	-9.39225
▁수상	-9.39229
홍	-9.39278
▁설치	-9.39283
때	-9.39319
▁캐나다	-9.39393
볼	-9.39424
▁분석	-9.39542
▁집단	-9.3956
▁골	-9.3958
▁인터넷	-9.39596
리에	-9.39694
▁유명한	-9.39725
▁상대	-9.39971
王	-9.40122
도록	-9.40139
▁사망	-9.40156
▁프랑스의	-9.40161
▁맥	-9.40189
날	-9.40312
▁평가	-9.40327
;	-9.40399
▁독일의	-9.40536
다가	-9.40815
▁주도	-9.40846
▁풍	-9.40903
▁정규	-9.40928
인데	-9.40944
▁출전	-9.41032
▁막	-9.41111
귀	-9.41127
맨	-9.41146
》()	-9.41158
▁불리는	-9.41185
▁형성	-9.41186
룡	-9.41232
▁여기서	-9.41337
▁사람들이	-9.41438
▁사업	-9.41482
▁밀	-9.41664
흥	-9.41784
기는	-9.41822
▁1989	-9.41876
▁하계	-9.41953
▁스포츠	-9.42016
▁UEFA	-9.42085
▁함	-9.42112
▁밴드	-9.42187
▁중심	-9.42258
▁있기	-9.42339
▁건물	-9.42349
▁목적으로	-9.42407
▁선수로	-9.42422
▁보내	-9.42535
▁법률	-9.42623
▁감독의	-9.42711
▁중에	-9.42713
▁역사	-9.42799
료	-9.42806
▁해군	-9.42833
견	-9.42847
16	-9.42855
▁우승을	-9.42901
사를	-9.42932
▁KBS	-9.4298
군은	-9.4304
좌	-9.43094
▁최종	-9.43143
Y	-9.43202
▁정의	-9.43246
▁공개	-9.43283
▁걸	-9.43423
▁먼저	-9.4352
▁누	-9.43694
80	-9.43717
▁환경	-9.43726
▁것과	-9.43741
60	-9.43812
▁도입	-9.43824
▁차량	-9.43885
▁것이었다	-9.43993
▁기능	-9.4402
▁갈	-9.44053
▁시도	-9.44065
or	-9.44137
▁히	-9.44143
17	-9.44156
▁네덜란드	-9.44162
든	-9.4418
위에	-9.44307
▁있으나	-9.44353
학교	-9.44388
▁문학	-9.44391
▁강화	-9.44531
▁통일	-9.44637
되었으나	-9.44692
▁지배	-9.44809
▁죽	-9.44857
▁국가대표팀	-9.44911
▁교수	-9.44935
▁진출	-9.44947
방송	-9.44994
교육	-9.45097
▁주장	-9.45123
▁대구	-9.45194
▁아프리카	-9.45232
▁표	-9.45234
國	-9.45274
기가	-9.45317
▁제작된	-9.45333
▁가능하다	-9.4558
▁게	-9.45596
▁악	-9.4567
▁그녀의	-9.45736
▁경우가	-9.45806
▁도로	-9.45877
▁절	-9.45986
▁부족	-9.45995
ur	-9.46043
▁동물	-9.46267
▁설	-9.46309
X	-9.46419
▁푸	-9.46533
▁혁명	-9.4664
▁변화	-9.46666
▁황제	-9.46777
▁제국의	-9.46814
자의	-9.46915
▁영어	-9.46943
하였는데	-9.47
▁사용한다	-9.47033
김	-9.47058
흐	-9.47076
야마	-9.47098
호선	-9.47254
13	-9.47263
▁후보	-9.47389
▁자동차	-9.47414
▁경상북도	-9.47419
▁버	-9.4742
▁200	-9.4748
밀	-9.47509
▁비슷한	-9.47536
▁실제	-9.47547
▁칼	-9.4757
▁초대	-9.47791
▁지냈다	-9.478
▁단체	-9.47813
▁시기	-9.47826
▁북부	-9.47846
▁수많은	-9.47878
쓰	-9.4788
▁지난	-9.47968
TV	-9.48056
▁구성되어	-9.4809
알	-9.48405
▁계약	-9.48557
▁환	-9.48566
▁미국에서	-9.48647
k	-9.48657
▁기록했다	-9.48672
스터	-9.48697
▁기본	-9.48811
an	-9.48824
톤	-9.4884
▁오스트리아	-9.48855
▁통치	-9.48887
완	-9.48897
▁항공	-9.48924
▁구조	-9.48958
스의	-9.48974
40	-9.48985
▁조선민주주의인민공화국	-9.48987
)'	-9.49092
▁끝에	-9.49246
▁라디오	-9.49252
▁특정	-9.49262
▁해석	-9.49277
▁상대로	-9.4937
▁처리	-9.49442
▁샤	-9.49472
▁모델	-9.49489
子	-9.4957
▁높이	-9.49618
▁동부	-9.49626
▁이름	-9.49647
▁출연	-9.49778
▁국립	-9.49814
▁수는	-9.49861
▁이름이	-9.49972
센	-9.49998
자는	-9.50065
▁형태로	-9.50084
▁지역에서	-9.50234
취	-9.50252
▁의하면	-9.50384
▁커	-9.50484
▁면	-9.5089
▁오스트레일리아	-9.50896
▁수행	-9.50916
▁나머지	-9.51044
▁스스로	-9.51049
친	-9.51067
▁다만	-9.51071
▁있다는	-9.51072
▁추진	-9.51091
25	-9.51119
▁벌	-9.51125
▁아르	-9.51151
br	-9.51229
▁예술	-9.51291
50	-9.51303
▁1945	-9.51355
▁선수권	-9.5137
▁지명	-9.51431
균	-9.51432
▁사이에서	-9.51466
▁왕조	-9.51527
州	-9.51549
[	-9.51604
▁곳에	-9.51698
었고	-9.51731
먼	-9.51775
▁국회의원	-9.51837
▁와	-9.51858
▁『	-9.52022
▁공작	-9.52047
사가	-9.52076
▁칸	-9.52123
▁1950	-9.52143
▁대표적인	-9.5216
람	-9.5221
▁있지	-9.52338
▁마찬가지로	-9.52392
▁설계	-9.52439
▁남성	-9.52687
▁헤	-9.52697
▁서부	-9.52746
▁이렇게	-9.52817
▁공항	-9.52905
▁요구	-9.5296
▁건축	-9.5309
▁관측	-9.53195
만이	-9.53247
▁에너지	-9.53307
-1	-9.53338
▁필	-9.5334
(18	-9.53403
▁시작하였다	-9.53415
▁위해서	-9.536
▁몸	-9.53788
▁질	-9.53798
r	-9.53821
▁나라	-9.53901
▁클럽	-9.53907
▁1987	-9.53909
▁육	-9.53921
14	-9.53946
▁보다	-9.53964
▁1986	-9.53966
▁쓴	-9.54131
허	-9.54269
련	-9.54273
▁부른다	-9.54381
▁성장	-9.54508
▁언어	-9.54544
동에	-9.54586
릉	-9.54675
▁작가	-9.5475
▁그린	-9.5483
▁버스	-9.54997
▁승리	-9.55001
▁만에	-9.55028
▁밤	-9.55186
▁파리	-9.55197
▁몇몇	-9.5521
▁파괴	-9.55254
三	-9.55468
▁우리	-9.55504
▁지지	-9.55556
▁데이터	-9.55608
▁사용된다	-9.55714
름	-9.55721
▁준비	-9.56
▁인식	-9.56002
가지	-9.56015
el	-9.56065
▁있었고	-9.56108
▁복	-9.56153
자리	-9.5634
택	-9.56514
道	-9.5652
빌	-9.56621
南	-9.5664
염	-9.567
▁기관	-9.56811
▁연주	-9.56908
▁주변	-9.56919
스키	-9.56924
▁뿐	-9.56989
▁목록	-9.56992
▁인천	-9.56995
▁사용할	-9.57084
하라	-9.57117
70	-9.57209
▁관련된	-9.57297
▁1984	-9.57301
▁공간	-9.57323
▁조각	-9.57333
▁쓰	-9.57423
▁가정	-9.5744
es	-9.57469
▁니	-9.5752
▁경상남도	-9.57589
▁실험	-9.57727
▁부인	-9.57778
른	-9.57798
기에	-9.57876
하기로	-9.57925
▁식물	-9.57935
묘	-9.58117
▁폴	-9.58121
되기도	-9.58173
安	-9.58207
▁요리	-9.58248
춘	-9.58305
▁노선	-9.58331
▁제품	-9.58381
▁발사	-9.58397
▁행성	-9.58435
▁길이	-9.58451
▁식민지	-9.58478
▁결합	-9.58651
했다고	-9.58657
it	-9.58677
▁따른	-9.58679
▁조정	-9.58792
▁적이	-9.58951
▁연기	-9.58963
▁사고	-9.58986
▁지역을	-9.59221
▁명령	-9.59237
▁일을	-9.59246
만을	-9.59264
▁헌법	-9.5933
▁프리	-9.59399
▁m	-9.59455
▁감소	-9.59459
▁1985	-9.59526
▁전통	-9.59536
▁대해서는	-9.59547
센터	-9.59596
th	-9.59689
▁의원	-9.59782
▁배치	-9.59811
블	-9.59838
▁참여	-9.59903
▁소프트웨어	-9.59917
션	-9.59992
▁태양	-9.60063
ro	-9.60072
▁멕시코	-9.60097
▁불교	-9.60101
▁사망하였다	-9.6011
▁집합	-9.60111
▁전라남도	-9.60116
re	-9.60204
▁정리	-9.6024
東	-9.60254
▁색	-9.60255
▁통과	-9.6027
▁and	-9.60329
▁옥	-9.60457
책	-9.60459
▁때는	-9.6054
▁중에서	-9.60604
▁테	-9.60676
▁사진	-9.60713
▁적용	-9.60752
▁못한	-9.60764
▁중화인민공화국	-9.60819
시키고	-9.60835
▁연극	-9.60845
▁못하고	-9.60855
▁극	-9.60865
▁떨어진	-9.60925
▁만들	-9.60934
x	-9.61019
▁제한	-9.61024
▁60	-9.61096
▁엘	-9.6115
▁올	-9.61229
▁디자인	-9.61251
城	-9.61285
▁눈	-9.61321
벌	-9.61332
▁나무	-9.61386
▁/	-9.61423
▁것도	-9.61468
▁덕	-9.61485
▁시장	-9.61527
▁가능한	-9.61567
▁프로젝트	-9.61581
▁지하철	-9.61659
하려	-9.61671
▁나가	-9.61684
▁편성	-9.617
▁왔다	-9.61708
▁내부	-9.61772
』	-9.62
▁비디오	-9.62075
w	-9.6211
았다	-9.62135
▁유일한	-9.62193
▁사랑	-9.62233
▁근	-9.62263
▁만화	-9.623
▁소련	-9.62301
▁번역	-9.62358
리는	-9.62437
氏	-9.62458
▁분리	-9.62466
액	-9.62484
▁확대	-9.62519
스크	-9.62568
▁팀의	-9.62596
▁오브	-9.62598
▁완	-9.62652
▁합	-9.6269
▁않아	-9.62742
▁제공	-9.62845
▁강한	-9.62888
▁더불어	-9.6298
人	-9.62992
▁오후	-9.63039
효	-9.63124
▁각종	-9.63402
군을	-9.63461
▁정부는	-9.63463
▁개혁	-9.63521
▁표기	-9.63524
푸	-9.6362
z	-9.63654
▁디지털	-9.63663
▁함수	-9.6371
▁문자	-9.63728
▁개최	-9.63748
▁마리	-9.6378
▁부여	-9.63946
▁학	-9.63953
▁구단	-9.63978
▁레이	-9.64063
대를	-9.64067
되자	-9.64071
▁이루어져	-9.64098
돈	-9.6424
▁제도	-9.64256
▁하이	-9.64262
?	-9.64339
기로	-9.64402
▁폐	-9.64479
▁광주	-9.64493
협회	-9.64513
▁풀	-9.64548
▁필요한	-9.64578
▁지정	-9.64594
혜	-9.64598
▁대상	-9.64684
24	-9.6476
▁록	-9.64828
▁1982	-9.64839
▁학생	-9.64857
90	-9.64911
▁상태	-9.64949
▁열차	-9.64979
▁위치하고	-9.65023
▁떠나	-9.65131
▁제조	-9.65186
▁돈	-9.65213
검	-9.65219
▁도시로	-9.65234
▁아니	-9.65452
▁이용하여	-9.65506
▁인정	-9.65521
▁[	-9.65556
▁가까운	-9.65562
▁교회	-9.65566
▁방어	-9.65586
▁임명	-9.65605
▁핵	-9.65613
▁전환	-9.65645
력을	-9.65721
▁만들었다	-9.65767
영화	-9.65813
하다가	-9.6583
▁평화	-9.65849
자와	-9.65897
▁앞	-9.65901
▁특별	-9.65933
세를	-9.65954
▁항	-9.65971
▁확인	-9.66001
▁행사	-9.66124
▁발달	-9.66201
▁런던	-9.66208
▁일어난	-9.66259
▁The	-9.66374
▁경우에는	-9.66393
▁문제가	-9.66413
명은	-9.66415
▁아니다	-9.66448
is	-9.66513
팔	-9.66613
▁지도	-9.66675
명으로	-9.66746
▁낮은	-9.66771
▁시행	-9.66777
▁의사	-9.66847
움	-9.66882
▁졸업	-9.66895
▁홈	-9.66905
▁정치적	-9.6693
▁연장	-9.67016
▁삼성	-9.67031
中	-9.67134
ad	-9.67167
▁참여하였다	-9.67187
▁어린	-9.67204
농	-9.67214
▁촬영	-9.67225
▁교통	-9.67234
▁관계를	-9.67268
▁국경	-9.67324
참	-9.67352
▁일제	-9.67568
▁1983	-9.67662
▁망	-9.67741
▁브라질	-9.6776
▁문제를	-9.67786
ia	-9.67813
▁경기를	-9.67823
▁기존	-9.67837
칠	-9.67905
▁안에	-9.67936
으나	-9.67962
▁폰	-9.67984
▁요시	-9.67988
▁직	-9.67989
▁아직	-9.68048
▁북한	-9.68073
▁반면	-9.68103
21	-9.68124
관리	-9.68173
전에서	-9.68225
▁통하여	-9.68386
▁행동	-9.68406
존	-9.68407
▁만들어진	-9.68449
▁등장	-9.68482
▁둘	-9.68607
▁점령	-9.68686
▁작업	-9.68742
天	-9.68749
군이	-9.68838
었으며	-9.68846
▁조지	-9.68918
▁설명	-9.68946
냐	-9.68965
▁전투에서	-9.6899
▁신문	-9.69009
장이	-9.69194
한다는	-9.69196
▁비판	-9.69222
▁바탕으로	-9.69331
ic	-9.69346
리스	-9.69359
▁정식	-9.69371
▁설정	-9.69381
혼	-9.69407
▁한국의	-9.69421
▁경영	-9.69444
▁불린다	-9.69516
▁실제로	-9.69552
침	-9.6956
▁이적	-9.69579
▁개통	-9.69638
기관	-9.69658
라고도	-9.69705
▁무기	-9.69744
▁표시	-9.6975
였으며	-9.6982
팅	-9.69833
긴	-9.69868
▁탈	-9.69927
》,	-9.69978
▁물론	-9.70021
▁남쪽	-9.70105
▁케	-9.70176
▁주었다	-9.703
▁과	-9.70315
임을	-9.70345
▁제외한	-9.70448
ar	-9.70475
▁조성	-9.70574
▁강원도	-9.70587
▁참가	-9.70605
▁충청남도	-9.70642
엘	-9.70677
틴	-9.70684
▁MBC	-9.70748
▁반응	-9.70754
▁경쟁	-9.70899
▁만나	-9.70948
▁대회에서	-9.70981
▁회사	-9.70992
▁지적	-9.71038
▁정책	-9.71082
정부	-9.71189
▁만약	-9.71195
골을	-9.71234
▁뉴	-9.71246
▁구조를	-9.71259
▁캐릭터	-9.71303
▁터키	-9.7132
월까지	-9.71331
▁작전	-9.7141
▁월드	-9.7148
▁접	-9.71515
▁올랐다	-9.71548
쳐	-9.71573
▁땅	-9.71606
▁제임스	-9.71614
▁충돌	-9.71654
▁뒤에	-9.71658
▁사실을	-9.71714
▁기존의	-9.71725
곤	-9.71744
▁새로	-9.71749
▁신라	-9.7176
▁해외	-9.71889
▁지하	-9.71897
▁의미	-9.71914
▁중국의	-9.71969
레스	-9.71992
▁지휘	-9.71995
▁말을	-9.72021
▁간의	-9.72022
27	-9.72023
장으로	-9.72062
▁in	-9.72071
위로	-9.72131
▁승	-9.72154
▁멤버	-9.7219
▁아일랜드	-9.72204
▁머리	-9.72216
▁출신의	-9.72223
쉬	-9.7224
▁스웨덴	-9.72246
▁언론	-9.72249
▁문서	-9.72443
씩	-9.72447
et	-9.72472
▁독	-9.72478
法	-9.72479
▁판단	-9.72493
▁s	-9.7259
▁반란	-9.72643
점을	-9.7267
▁de	-9.72683
▁개선	-9.72751
▁되었으며	-9.72756
▁기후	-9.72791
48	-9.72791
▁나이	-9.72818
▁위치	-9.72952
시킨	-9.7302
▁본래	-9.73132
조선	-9.73254
하려는	-9.73324
들로	-9.73345
▁계산	-9.73385
▁1979	-9.73421
宗	-9.73457
▁중간	-9.73509
▁인한	-9.73542
▁그림	-9.73559
▁1981	-9.73561
올	-9.73583
▁수정	-9.73633
▁사람은	-9.73669
년대에	-9.73714
간의	-9.73721
▁뿐만	-9.73742
▁나중에	-9.73801
▁활약	-9.73811
함을	-9.73869
26	-9.74094
습	-9.74106
▁처	-9.74135
▁일이	-9.74136
▁위치해	-9.74155
as	-9.74165
▁사용되는	-9.74168
▁기록을	-9.74183
▁교체	-9.74193
▁고등학교	-9.74205
▁동생	-9.74259
寺	-9.74272
▁잡	-9.74273
일본	-9.74296
갑	-9.74307
▁타이	-9.74327
▁터	-9.74334
▁천황	-9.7438
▁외부	-9.74382
▁여전히	-9.74429
▁최고의	-9.74525
▁경찰	-9.74679
▁들어가	-9.74687
거리	-9.74825
제를	-9.74882
▁사용하여	-9.75012
▁그해	-9.75021
▁급	-9.75078
▁보도	-9.75161
상의	-9.75242
▁기능을	-9.75288
▁위의	-9.75345
혈	-9.75385
▁1972	-9.75441
▁치료	-9.75527
▁시험	-9.75567
▁형식	-9.75569
▁유리	-9.75657
▁만드는	-9.75842
▁그래서	-9.7585
▁일반적인	-9.75864
클	-9.75893
▁경험	-9.75904
줄	-9.76018
되었는데	-9.76106
▁종료	-9.76113
▁금지	-9.7616
▁나온	-9.76184
▁뉴스	-9.7619
▁항상	-9.76191
▁내에서	-9.76296
28	-9.76332
▁기계	-9.76452
▁보면	-9.76488
▁실행	-9.76514
▁하기	-9.76528
▁방영	-9.76557
겐	-9.76627
▁대응	-9.7663
▁선정	-9.76694
▁생활을	-9.76755
였고	-9.76765
▁1973	-9.76819
사업	-9.76862
▁정당	-9.76932
▁거리	-9.7697
▁종합	-9.77063
▁웹	-9.77229
산업	-9.77239
▁정부의	-9.77253
▁작곡	-9.77405
니아	-9.77434
▁시민	-9.77437
▁대체	-9.77451
▁사람을	-9.77455
▁검	-9.77554
▁전달	-9.77573
▁둔	-9.77706
▁녹음	-9.77726
▁점차	-9.7773
화를	-9.77796
▁접근	-9.77881
스가	-9.77952
▁시기에	-9.77955
척	-9.77958
컵	-9.77986
▁노력	-9.78009
▁무역	-9.78072
▁밖에	-9.7815
29	-9.78236
▁등에서	-9.78251
압	-9.78364
▁범	-9.78405
▁쉽게	-9.78406
▁작	-9.78417
▁훈련	-9.7844
▁방문	-9.78455
응	-9.78499
▁책	-9.78501
몬	-9.78508
이라고도	-9.78541
▁있었지만	-9.78628
튼	-9.78653
젠	-9.78719
▁공급	-9.78748
사의	-9.78756
▁외에도	-9.78798
으로써	-9.78939
▁스위스	-9.78979
▁인수	-9.78999
▁선언	-9.79018
▁중단	-9.79123
▁부대	-9.79147
▁승격	-9.7924
▁붕괴	-9.79247
23	-9.79263
▁완성	-9.79335
▁인물	-9.79361
시즌	-9.79556
▁임시	-9.79559
▁가리키는	-9.79636
正	-9.79677
학년	-9.79696
▁민주당	-9.79738
▁센터	-9.79864
▁마리아	-9.7988
▁폭	-9.79889
단체	-9.7995
▁사실상	-9.79963
▁시작되었다	-9.79968
▁핀란드	-9.79974
▁시설	-9.80038
▁전개	-9.80147
그룹	-9.80155
▁500	-9.80197
세기에	-9.80316
▁사회주의	-9.80423
탑	-9.80446
수를	-9.80474
▁동쪽	-9.80493
앙	-9.8059
▁소개	-9.8061
07	-9.8062
▁하자	-9.80674
▁대륙	-9.80695
운동	-9.80698
▁가는	-9.80883
▁32	-9.80915
▁강력한	-9.80948
▁장치	-9.8098
측	-9.8099
▁속에서	-9.80995
지역	-9.81034
딩	-9.81187
▁내려	-9.81268
사회	-9.81281
▁시대의	-9.81335
닌	-9.81345
▁계약을	-9.81372
▁자리를	-9.81377
돼	-9.81395
▁매년	-9.81401
▁경우도	-9.81444
▁하루	-9.81453
▁실시	-9.81472
▁잡지	-9.8154
로써	-9.81569
▁무장	-9.81579
▁글	-9.81643
▁논	-9.81682
수가	-9.81752
걸	-9.81757
회사	-9.81786
▁주는	-9.81856
▁철도역	-9.81863
▁보존	-9.81873
교회	-9.81882
▁본선	-9.81886
▁1974	-9.81932
▁필요	-9.81964
▁낙	-9.82016
▁허용	-9.82065
대의	-9.82083
▁잠시	-9.82145
▁취	-9.82219
▁승리를	-9.8222
▁수립	-9.82225
▁주장했다	-9.82236
▁관심을	-9.82248
▁떨어져	-9.82284
▁사람들은	-9.82299
id	-9.82353
▁최근	-9.82386
▁발행	-9.82426
um	-9.8246
했기	-9.82481
베르	-9.82511
▁필리핀	-9.82544
▁힘	-9.82553
公	-9.82554
엽	-9.82567
▁일종이다	-9.82672
▁형제	-9.82713
▁이해	-9.82788
▁침공	-9.82796
기술	-9.82987
스와	-9.83012
▁공격을	-9.8302
하려고	-9.83035
직을	-9.83038
▁a	-9.83045
▁찾아	-9.83068
00	-9.83126
▁엔	-9.8317
▁사용한	-9.83181
▁윌리엄	-9.83185
▁가톨릭	-9.83195
▁프	-9.83201
▁은퇴	-9.83259
▁투수	-9.83267
▁파일	-9.83268
▁헝가리	-9.83304
▁태어난	-9.83315
▁류	-9.83341
덴	-9.83357
버스	-9.83362
▁발표했다	-9.83384
▁녹	-9.83388
▁대형	-9.83406
▁의해서	-9.83406
▁사회적	-9.83406
▁너무	-9.83413
육	-9.83436
▁친구	-9.835
▁출판	-9.83589
▁엔진	-9.83601
착	-9.83609
元	-9.83657
▁농업	-9.83663
▁수학	-9.83667
▁플레이	-9.83747
▁실패	-9.83751
▁뒤를	-9.83801
▁1976	-9.83848
▁묘	-9.83885
▁앤	-9.83912
▁양식	-9.83923
▁비행	-9.8394
▁받는	-9.83997
-2	-9.84029
▁방식으로	-9.84036
▁측정	-9.84084
▁여행	-9.84101
▁정보를	-9.84129
되었지만	-9.84163
지고	-9.84166
▁언급	-9.84181
▁자신을	-9.84203
▁갖춘	-9.84291
선을	-9.84323
▁콜	-9.84355
事	-9.8442
川	-9.84472
▁작용	-9.84491
▁선출	-9.84547
▁종종	-9.84571
▁구역	-9.84769
▁나서	-9.84851
▁포르투갈	-9.84857
▁말이다	-9.849
▁잔	-9.84927
▁본관은	-9.84933
▁설립된	-9.84954
▁지도자	-9.84985
▁청나라	-9.85002
십	-9.85013
▁속에	-9.85045
▁1978	-9.85103
▁울	-9.85152
▁저항	-9.85243
▁이전에	-9.85295
▁형태	-9.85349
▁조약	-9.85407
▁운	-9.85449
▁이끄는	-9.85491
▁이루어진	-9.85563
▁정신	-9.85681
군에	-9.85718
▁구분	-9.85786
▁뛰어난	-9.85815
▁1971	-9.85828
▁해방	-9.85842
▁옮겨	-9.85861
▁수입	-9.85865
▁오늘날	-9.85982
▁대해서	-9.85998
▁1968	-9.86038
▁1975	-9.86055
▁고구려	-9.86093
▁주연으로	-9.86095
벽	-9.86113
▁임명되었다	-9.86116
몽	-9.86124
▁회복	-9.86132
진다	-9.86152
▁병력	-9.8616
▁1948	-9.86164
▁네트워크	-9.86166
▁증	-9.86173
시설	-9.86175
▁신경	-9.86225
▁항성	-9.86231
▁다이	-9.86241
一	-9.8625
▁태평양	-9.86314
▁가입	-9.86315
▁비교적	-9.86479
▁출시	-9.86486
▁버전	-9.86512
▁능	-9.86525
te	-9.86557
▁개봉한	-9.86559
v	-9.86605
平	-9.86627
▁노동	-9.86644
되었던	-9.86651
▁유로	-9.8668
폭	-9.86682
글	-9.86737
▁1963	-9.86754
▁쓰인다	-9.86865
▁동계	-9.86888
▁통제	-9.86937
▁계승	-9.86953
▁중화민국	-9.86971
▁힘을	-9.8706
▁대립	-9.87085
▁1920	-9.87091
▁활용	-9.8713
▁뇌	-9.87137
▁가족	-9.87278
지로	-9.87311
▁범위	-9.87317
징	-9.87322
▁빌	-9.87344
▁다섯	-9.87404
▁크	-9.87423
▁발매되었다	-9.87435
▁협회	-9.87454
싱	-9.87473
▁이집트	-9.87483
▁거주	-9.8752
▁물질	-9.87527
▁등장하는	-9.87562
▁폭발	-9.87608
▁인민	-9.87693
▁대사	-9.87784
▁대규모	-9.87841
능	-9.87847
▁귀족	-9.87858
▁얼마	-9.87898
▁규정	-9.87986
il	-9.87989
▁영상	-9.88029
▁폐지	-9.88062
▁직후	-9.88147
▁부문	-9.88185
▁유명	-9.88201
▁이스라엘	-9.88215
▁홀	-9.88276
▁음력	-9.8828
▁여름	-9.88285
랜드	-9.88302
▁이것이	-9.88306
)"	-9.88331
었던	-9.88487
▁세웠다	-9.88525
▁합병	-9.88525
▁이래	-9.88584
레이	-9.88606
▁박사	-9.8862
▁1930	-9.88659
▁뜻이	-9.88679
▁80	-9.88722
▁알고	-9.88728
▁죽은	-9.88729
▁자리	-9.88745
▁인기를	-9.88753
ir	-9.88756
長	-9.88763
▁연맹	-9.88785
▁않을	-9.88827
시킬	-9.88855
▁1969	-9.88857
▁성인	-9.88902
킨	-9.88904
▁나오는	-9.89035
▁인하여	-9.89086
▁기자	-9.89148
▁시대에	-9.89268
▁1940	-9.893
▁범죄	-9.89323
▁획득	-9.89343
▁메이저	-9.8938
▁지진	-9.89389
22	-9.8939
▁설치되어	-9.89516
▁슈퍼	-9.8952
협	-9.89534
▁지상	-9.89605
▁인간의	-9.89605
▁좌	-9.89629
▁보이는	-9.89633
▁휴	-9.89635
▁지속	-9.89656
▁해체	-9.89681
Z	-9.89687
▁채널	-9.89701
▁입단	-9.89751
사로	-9.89801
국가	-9.89959
나라	-9.90017
▁기사	-9.90033
▁기대	-9.90042
▁아무	-9.90086
▁이란	-9.90089
▁국회	-9.90104
▁화학	-9.9014
▁&	-9.90146
▁해안	-9.90172
차원	-9.90231
ine	-9.90241
▁지대	-9.9026
▁때에는	-9.90266
▁도움을	-9.90285
▁그런	-9.90295
▁발견된다	-9.90307
▁상호	-9.90316
▁아내	-9.90339
장은	-9.90354
▁부정	-9.90376
01	-9.90409
▁태어나	-9.90432
법을	-9.90451
탁	-9.90468
▁담당	-9.90514
▁세운	-9.90577
율	-9.90578
45	-9.906
칭	-9.9074
셔	-9.90818
▁전차	-9.90829
▁있었으며	-9.90851
▁농	-9.90916
우스	-9.90921
▁어떻게	-9.90929
▁재직	-9.90933
▁전혀	-9.90961
▁장군	-9.91051
▁후반	-9.91057
)》	-9.9107
▁대상으로	-9.91079
▁홍콩	-9.91083
▁과정을	-9.91109
▁장기	-9.91139
▁위치한다	-9.9114
▁거부	-9.91176
▁통신	-9.91194
닝	-9.91235
▁구성된	-9.91251
▁영토	-9.91285
▁평양	-9.91295
▁내용을	-9.91318
▁통한	-9.9133
▁흔히	-9.9133
딘	-9.91363
▁제안	-9.91363
세포	-9.91478
▁집중	-9.91525
un	-9.91586
▁코드	-9.91613
▁70	-9.91752
▁구간	-9.91758
틀	-9.91761
▁이후에	-9.91779
이므로	-9.91782
▁젊은	-9.91794
&	-9.91876
▁축	-9.91891
들도	-9.91922
콘	-9.9198
▁소유	-9.92037
서를	-9.92084
▁없어	-9.9213
▁씨	-9.92169
▁해결	-9.92198
86	-9.92206
▁가능	-9.92222
벤	-9.92373
75	-9.92431
▁예선	-9.92452
▁올라	-9.92458
▁b	-9.925
▁다리	-9.92513
성과	-9.92514
▁이번	-9.92526
+	-9.92537
동음이의	-9.92766
하나	-9.9279
부대	-9.92831
▁사용자	-9.9285
35	-9.9285
▁군주	-9.9285
▁있었으나	-9.92867
▁사람의	-9.92901
▁미사일	-9.92904
▁내각	-9.92921
▁제정	-9.92923
▁잠	-9.92982
▁전시	-9.92982
▁f	-9.93007
38	-9.93024
明	-9.93084
▁초등학교이다	-9.93087
경제	-9.93203
▁연대	-9.93235
▁검사	-9.93236
▁단위	-9.93288
▁윈도우	-9.93315
▁등은	-9.93327
풀	-9.93406
식을	-9.93429
▁1964	-9.93438
▁체결	-9.93446
▁아르헨티나	-9.93489
▁했지만	-9.93492
이었고	-9.93501
▁1977	-9.93516
잔	-9.93545
한국	-9.93545
▁궤도	-9.93582
▁유명하다	-9.93609
▁짧은	-9.93635
롱	-9.93662
▁원정	-9.93675
▁역사상	-9.93684
카와	-9.93731
lo	-9.93777
▁300	-9.9381
▁염	-9.93823
▁꽃	-9.93865
▁사용되었다	-9.93869
한다고	-9.93921
음악	-9.93927
인이	-9.93963
▁차례	-9.93984
▁유도	-9.93992
▁오르	-9.94049
▁방향	-9.9408
까	-9.94168
▁전라북도	-9.94189
▁패배	-9.94256
폰	-9.94263
▁포지션은	-9.94266
▁보급	-9.94276
▁Z	-9.94284
▁1946	-9.94291
어로	-9.94342
시마	-9.94346
텐	-9.94351
▁복귀	-9.94454
욱	-9.94466
▁형태의	-9.94468
▁외에	-9.94543
▁팀은	-9.94555
=	-9.94574
▁비밀	-9.94578
海	-9.94621
▁자체	-9.94742
▁이론	-9.948
▁기념	-9.948
▁선의	-9.94826
▁몽골	-9.94836
▁한다고	-9.95072
▁휘	-9.95097
▁마련	-9.95144
▁지나	-9.95255
▁아주	-9.95338
▁곳	-9.95479
05	-9.9553
▁표면	-9.95583
문을	-9.95615
▁공산당	-9.9564
▁격	-9.95651
▁업무	-9.95654
▁점에서	-9.9573
▁일정	-9.95764
▁브랜드	-9.95892
▁제기	-9.95896
적이고	-9.95907
▁일본에서	-9.95927
세대	-9.95953
▁응	-9.95962
▁카드	-9.95963
▁협력	-9.96014
▁앞서	-9.9603
▁세력	-9.96087
로스	-9.96098
▁되지	-9.96192
▁과정	-9.96222
▁등록	-9.96225
▁달러	-9.96226
學	-9.96266
▁하면서	-9.96293
없이	-9.96322
義	-9.96347
man	-9.96366
▁건강	-9.96372
_2	-9.96382
▁한때	-9.96405
▁1962	-9.9641
▁지역은	-9.96436
▁장비	-9.96477
55	-9.96494
ter	-9.96508
09	-9.96565
▁루이	-9.96654
▁추정된다	-9.96701
▁제거	-9.96709
▁왕국	-9.9679
은행	-9.96794
▁주인공	-9.96871
▁잎	-9.969
▁권력	-9.96936
▁레코드	-9.96954
99	-9.96992
▁하는데	-9.97029
비아	-9.97033
▁묘사	-9.9705
▁수용	-9.97056
▁확보	-9.97099
플	-9.9712
▁온라인	-9.97165
기의	-9.97232
▁즉위	-9.97257
▁지낸	-9.97265
▁동일한	-9.97318
▁내에	-9.97328
과학	-9.97339
▁따	-9.97351
▁위성	-9.97359
릭	-9.97426
에게서	-9.97439
쪽	-9.97466
▁오전	-9.97473
st	-9.9749
36	-9.97495
▁됐다	-9.97525
▁마사	-9.97534
▁육상	-9.9756
▁미술	-9.97585
정보	-9.976
▁성격	-9.97636
▁왜	-9.97649
펜	-9.97746
▁장식	-9.97757
▁1967	-9.9777
▁우크라이나	-9.97774
▁1949	-9.97787
▁특수	-9.97809
65	-9.97831
▁개정	-9.97859
왔다	-9.97878
▁브	-9.97922
▁현실	-9.97939
▁담	-9.97954
ation	-9.97969
08	-9.97977
▁국왕	-9.97989
▁베이징	-9.98048
ion	-9.98048
▁요청	-9.9809
전을	-9.98095
▁있었는데	-9.98099
▁35	-9.98118
▁공사	-9.98148
계의	-9.98151
▁다카	-9.982
▁단백질	-9.98322
사와	-9.98348
▁얻었다	-9.98363
▁콘	-9.98372
at	-9.98422
감을	-9.986
▁바다	-9.98626
▁끝	-9.98631
▁미디어	-9.98716
▁좋아	-9.98743
(15	-9.98746
▁투표	-9.98822
▁되면서	-9.98893
▁진화	-9.98918
▁없고	-9.98933
▁맡고	-9.98941
▁가스	-9.98967
▁왼쪽	-9.98974
▁단어	-9.98981
▁보수	-9.98985
▁은행	-9.99016
▁곳에서	-9.99039
▁맞	-9.99053
▁경주	-9.99053
찰	-9.991
헤	-9.99112
▁안정	-9.99141
▁전용	-9.99188
成	-9.99241
함에	-9.99263
렸다	-9.99303
▁출발	-9.99329
▁투자	-9.99346
▁소장	-9.99348
공사	-9.99391
다는	-9.99399
▁오히려	-9.99441
▁멸망	-9.99497
▁이끌고	-9.99498
98	-9.99505
▁인근	-9.99513
▁칭	-9.99519
▁기반으로	-9.99626
▁국도	-9.99639
▁오픈	-9.99665
▁외교	-9.9967
시아	-9.99674
▁정도의	-9.99675
▁훨씬	-9.9971
37	-9.99712
▁경계	-9.99714
▁Re	-9.99729
▁넓은	-9.99763
▁했으나	-9.99809
▁북쪽	-9.99844
▁세계에서	-9.99872
▁방법	-9.99875
34	-9.9998
▁p	-9.99996
수는	-10.0003
▁뜻을	-10.0008
▁증명	-10.0011
▁우선	-10.0011
▁생성	-10.0015
▁작성	-10.0017
▁마음	-10.0023
▁예상	-10.0025
▁보였다	-10.0039
ot	-10.0042
▁뜻한다	-10.0043
▁적은	-10.0046
▁장관	-10.0062
▁1965	-10.0063
개발	-10.0071
쥐	-10.0075
▁길이는	-10.0076
06	-10.0083
벨	-10.0084
▁제작에	-10.0088
웨이	-10.0089
▁II	-10.009
▁공공	-10.009
▁개편	-10.0094
▁생물	-10.0102
▁그에게	-10.0107
31	-10.0107
▁숲	-10.0109
上	-10.011
▁부터	-10.0115
로서의	-10.0118
▁득점	-10.0118
보다는	-10.0119
85	-10.0121
33	-10.0122
▁Y	-10.0124
▁만큼	-10.0125
▁여객철도	-10.0125
었는데	-10.0133
▁가문	-10.0134
▁사이트	-10.0134
▁흑	-10.0134
▁불러	-10.0135
▁?	-10.0136
지도	-10.0138
▁정부가	-10.0142
"(	-10.0146
▁합의	-10.0147
▁오사카	-10.015
▁1966	-10.0155
사는	-10.0159
▁하게	-10.0162
▁광고	-10.0162
▁=	-10.0166
▁관찰	-10.0173
西	-10.0175
32	-10.0178
화가	-10.0184
▁c	-10.0184
▁역대	-10.0188
▁요한	-10.0191
▁공원	-10.0202
▁그것은	-10.0208
▁총리	-10.0214
▁이사	-10.022
▁동료	-10.0228
▁전사	-10.0236
▁간주	-10.024
▁헨리	-10.0242
▁갑	-10.0242
▁가능성이	-10.0247
▁꼬리	-10.0248
▁저장	-10.0249
▁약간	-10.0257
ne	-10.0258
▁박물관	-10.0258
▁효	-10.0258
화된	-10.026
▁정복	-10.0264
▁기원	-10.0265
▁수출	-10.0266
▁기획	-10.027
폐	-10.0273
▁받지	-10.0276
▁출생	-10.0277
▁철학	-10.0283
▁다르다	-10.0283
▁계급	-10.0287
▁정권	-10.0291
시키기	-10.0293
스케	-10.0294
대가	-10.0295
▁시작한	-10.0296
▁시간이	-10.0298
▁발생한	-10.0299
▁통해서	-10.0301
▁쌍	-10.0303
홀	-10.0306
▁민주	-10.0313
▁사망했다	-10.0314
다이	-10.0315
▁1961	-10.0316
德	-10.0318
얼	-10.0324
▁흡수	-10.0325
▁발표한	-10.0325
95	-10.0326
▁속한다	-10.0329
▁원자	-10.033
▁부상	-10.0333
▁사용하고	-10.0337
으면	-10.034
▁스코틀랜드	-10.0346
▁차지했다	-10.0347
었으나	-10.0348
▁산맥	-10.035
시킨다	-10.0352
▁대기	-10.0357
▁충	-10.0361
랄	-10.0362
하고자	-10.0364
세계	-10.0366
64	-10.037
▁오랜	-10.0371
▁마드리드	-10.0374
뉴	-10.0381
▁목표	-10.0383
▁했고	-10.0387
▁벨	-10.0387
5%	-10.039
▁SBS	-10.0391
▁앞에	-10.0392
_	-10.0395
▁전쟁이	-10.0405
▁고전	-10.0407
04	-10.0408
▁기구	-10.0409
▁조치	-10.0416
▁거대한	-10.0417
陽	-10.0419
시장	-10.042
高	-10.0424
▁핵심	-10.0425
▁하였고	-10.0428
▁회의	-10.0431
▁편집	-10.0432
굴	-10.0432
▁피해	-10.0439
▁라인	-10.0442
▁이르는	-10.0446
▁규모	-10.0447
(16	-10.045
▁사후	-10.0451
킹	-10.0452
▁중세	-10.0454
▁LG	-10.0462
▁이후에는	-10.0463
▁살고	-10.0464
▁조건	-10.0465
▁당시의	-10.0471
▁보냈다	-10.0473
▁성과	-10.0478
이기	-10.0479
▁팬	-10.0481
▁칠	-10.0483
모토	-10.0484
°	-10.0487
▁위협	-10.0494
슬	-10.0496
▁목적	-10.0497
▁캐	-10.0507
▁기억	-10.0509
▁팀이	-10.0512
▁성적	-10.0513
▁마르	-10.0521
▁분자	-10.0521
▁남북	-10.0524
▁공식적으로	-10.053
력이	-10.0531
▁외국	-10.0533
68	-10.0536
▁탑	-10.0542
학과	-10.0546
▁프로그램이다	-10.0549
▁공포	-10.0553
▁잇는	-10.0557
▁감염	-10.0562
88	-10.0563
▁체포	-10.0565
▁모스크바	-10.0571
▁차이가	-10.0571
연합	-10.0584
▁앞두고	-10.0587
im	-10.0591
▁해당하는	-10.0591
▁CD	-10.0592
▁변호사	-10.0596
97	-10.0599
연대	-10.06
주에	-10.0603
▁스튜디오	-10.0603
문학	-10.0604
▁보아	-10.0614
성은	-10.0615
▁근무	-10.0618
▁넘어	-10.0618
▁타고	-10.0619
▁사는	-10.0623
石	-10.0625
▁로버트	-10.0629
세에	-10.0631
▁결과를	-10.0631
to	-10.0633
▁특	-10.0635
▁남편	-10.0639
▁고종	-10.0642
▁계획을	-10.0644
▁전략	-10.0648
트라	-10.065
▁정상	-10.0651
▁강제	-10.0651
연구	-10.0653
섭	-10.0654
성의	-10.0657
▁전력	-10.0658
▁안전	-10.0662
▁이용해	-10.0664
▁회전	-10.0668
▁에도	-10.0668
▁공군	-10.067
▁경기에	-10.067
行	-10.0674
▁관할한다	-10.0675
경기에	-10.0679
▁이슬람	-10.0687
▁반도	-10.0689
▁암살	-10.0691
▁경력	-10.0696
▁유전자	-10.0699
56	-10.07
▁오래된	-10.0704
▁수사	-10.0705
▁구축	-10.0706
받았다	-10.0711
▁그런데	-10.0714
지방	-10.0715
▁에이	-10.0726
▁보장	-10.073
▁벨기에	-10.0733
제도	-10.0739
▁은하	-10.0742
▁지금의	-10.0742
▁전주	-10.0752
▁계열	-10.0752
▁군인	-10.0754
▁블랙	-10.076
▁흥	-10.0761
▁의료	-10.0764
셀	-10.0767
▁되면	-10.0768
▁플랫폼	-10.0768
▁의회	-10.077
지가	-10.0771
타이	-10.0772
▁에피소드	-10.0773
▁성립	-10.0775
탕	-10.0776
▁상당히	-10.0777
▁이유	-10.0779
▁술	-10.078
▁운용	-10.0783
▁태풍	-10.0784
▁대중	-10.0785
▁이야기를	-10.0799
▁공개된	-10.0802
▁아메리카	-10.0803
▁학문	-10.0804
▁퍼	-10.0806
▁위해서는	-10.0807
▁추정	-10.0819
▁했으며	-10.0823
▁수가	-10.0823
▁포함되어	-10.0827
혁	-10.0828
家	-10.0828
▁해서	-10.083
같은	-10.0831
▁단계	-10.0833
▁그것을	-10.0836
▁카를	-10.0836
77	-10.0839
물을	-10.0844
▁요소	-10.0844
▁서쪽	-10.0846
am	-10.0849
누스	-10.0853
이었으며	-10.0857
▁비록	-10.0858
원을	-10.086
▁영향력	-10.0864
▁지원을	-10.0865
▁입학	-10.0868
▁주교	-10.0872
▁재정	-10.0878
ie	-10.0882
▁베르	-10.0887
▁늘	-10.0887
▁탄	-10.0887
▁권리	-10.0895
武	-10.0899
▁시각	-10.0904
▁워싱턴	-10.0905
▁이유는	-10.0907
▁엄	-10.091
▁타이완	-10.0915
부를	-10.0916
▁다음은	-10.0919
▁방향으로	-10.092
光	-10.093
▁처음에는	-10.0934
▁이미지	-10.0934
용으로	-10.0935
▁그리	-10.0937
▁결성	-10.094
주는	-10.0941
지에	-10.0942
에게는	-10.0948
▁400	-10.0948
기업	-10.095
-3	-10.0952
57	-10.0954
▁숙	-10.0955
▁회장	-10.0957
▁기반	-10.0959
▁연재	-10.0959
치는	-10.0968
▁벤	-10.097
▁승인	-10.0972
na	-10.0977
▁마이클	-10.0977
<	-10.0978
北	-10.0979
▁부산광역시	-10.0981
드는	-10.0985
▁현재까지	-10.0988
▁뜻	-10.0989
▁동맹	-10.0995
軍	-10.0996
루스	-10.0999
대회	-10.0999
▁저서	-10.0999
▁유나이티드	-10.1001
ly	-10.1005
▁유엔	-10.1006
▁이용한	-10.1009
_5	-10.1009
▁백작	-10.1013
▁무렵	-10.1013
▁다수	-10.1015
▁군대	-10.1023
▁얻어	-10.1026
사에	-10.1027
03	-10.1029
▁탑재	-10.1035
▁반영	-10.1037
部	-10.1044
ta	-10.1046
칼	-10.1048
ᆞ	-10.1048
▁이것을	-10.105
46	-10.1056
▁이중	-10.1056
▁썼다	-10.1062
47	-10.1067
▁전쟁을	-10.1067
▁크기	-10.1072
▁때부터	-10.1072
▁성경	-10.1077
▁라이	-10.1079
▁체계	-10.1081
▁투입	-10.1082
▁충청북도	-10.1083
▁90	-10.1087
이던	-10.1088
델	-10.109
▁일본군	-10.1091
▁고정	-10.1092
▁두었다	-10.1092
郡	-10.1094
44	-10.1097
아이	-10.1098
▁전후	-10.1102
리오	-10.1102
▁분야	-10.1104
▁방출	-10.1105
자들은	-10.1106
書	-10.1107
▁근대	-10.1111
▁러시아의	-10.1118
-19	-10.1125
▁미군	-10.1126
▁알게	-10.1127
선이	-10.1127
▁돌아가	-10.1134
▁1958	-10.1135
도시	-10.1136
▁영입	-10.1141
▁상하이	-10.1142
66	-10.1142
39	-10.1143
▁빠른	-10.1144
▁교토	-10.1144
▁대표팀	-10.1144
스를	-10.1146
겨	-10.1149
▁정착	-10.1151
▁맨	-10.1157
▁나치	-10.1158
지원	-10.1161
▁1944	-10.1161
죄	-10.1163
▁단일	-10.1167
▁울산	-10.1169
▁높이는	-10.117
▁희	-10.1174
▁대략	-10.1175
다고	-10.1177
▁솔로	-10.1182
'(	-10.1187
정책	-10.1189
▁특성	-10.1194
▁도착	-10.1196
▁공기	-10.1196
정치	-10.1197
곳	-10.1198
▁시작하여	-10.1199
▁활동하였다	-10.1201
▁발표하였다	-10.1204
▁상륙	-10.1215
é	-10.1215
기원전	-10.1216
라운드	-10.1218
▁1956	-10.1222
▁배경	-10.1224
▁창조	-10.1235
자들이	-10.1235
▁제어	-10.1238
▁넘는	-10.124
멘	-10.124
▁대수	-10.1241
▁시인	-10.1243
▁팀을	-10.1248
▁항공기	-10.125
▁수록	-10.1253
▁인사	-10.1259
地	-10.1263
▁방법을	-10.1264
▁바이러스	-10.1266
▁점을	-10.1268
무라	-10.1273
▁선수들	-10.1276
▁도중	-10.1278
▁봄	-10.1282
水	-10.1283
▁기록하였다	-10.1284
▁45	-10.1287
▁창립	-10.1291
▁1947	-10.1295
ch	-10.1297
58	-10.1299
핑	-10.1301
▁청소년	-10.1302
관계	-10.1302
49	-10.1308
,000	-10.1311
▁선거에서	-10.1313
냈다	-10.1314
▁보는	-10.1315
▁토지	-10.1316
▁금속	-10.1316
공원	-10.1317
▁상황	-10.1319
국의	-10.1326
▁작품을	-10.1328
_4	-10.1328
▁철수	-10.1329
시의	-10.1331
▁1941	-10.1335
▁때에	-10.1335
▁족	-10.1341
▁상승	-10.1342
사건	-10.1343
▁호텔	-10.1343
89	-10.1353
54	-10.1359
라이	-10.1359
▁인도네시아	-10.1362
▁세워	-10.1365
▁지식	-10.1367
▁운전	-10.1367
▁소년	-10.1367
뿐만	-10.1371
▁채용	-10.1376
▁바이	-10.1379
▁규칙	-10.1382
▁노동자	-10.1382
▁자료	-10.1382
▁없다고	-10.1383
▁라이브	-10.1383
▁달성	-10.1389
▁먹	-10.1391
▁자는	-10.1395
▁양성	-10.1397
▁위원회	-10.1398
▁공부	-10.1407
▁탈출	-10.1408
87	-10.1408
▁신학	-10.141
)’	-10.1411
▁시작으로	-10.1412
▁출마	-10.1413
▁창단	-10.1418
▁회원	-10.1418
▁국가의	-10.1419
▁엔터테인먼트	-10.1419
▁시간을	-10.1423
▁발매된	-10.1425
▁출장	-10.1431
▁취임	-10.1432
67	-10.1433
▁예수	-10.1433
▁번째로	-10.1435
▁사건이	-10.1436
▁출신으로	-10.1438
▁이제	-10.1438
▁파견	-10.1441
os	-10.1445
▁한다는	-10.1449
▁뮤직	-10.1451
▁최초	-10.1451
▁영업	-10.1457
▁덴마크	-10.1458
▁오른쪽	-10.1459
▁하면	-10.146
▁그러한	-10.1465
▁벽	-10.1467
94	-10.1469
▁민간	-10.1469
▁현상	-10.147
기간	-10.1472
마리	-10.1474
디아	-10.1475
▁의식	-10.1477
▁않았고	-10.1482
▁직업	-10.1484
▁음식	-10.1485
▁개념	-10.1487
▁받게	-10.1492
갔다	-10.1495
님	-10.1495
▁소비에트	-10.1496
동안	-10.1498
▁수상했다	-10.1504
하였지만	-10.1505
빛	-10.1507
・	-10.1517
ut	-10.1521
▁것처럼	-10.1523
▁종류의	-10.1528
▁진입	-10.1536
기구	-10.1536
▁시티	-10.1537
▁작곡가	-10.1538
▁막부	-10.1544
▁말았다	-10.1544
▁역임했다	-10.1544
전쟁	-10.1544
▁태어났으며	-10.1545
차전	-10.1546
▁가서	-10.1555
田	-10.1558
접	-10.1558
▁논란이	-10.1562
59	-10.157
▁사건을	-10.1573
리가	-10.1573
▁맡아	-10.1576
ol	-10.1578
▁카운티	-10.158
▁to	-10.1581
▁몽	-10.1581
인지	-10.1594
▁응용	-10.1601
▁향상	-10.1606
▁경기장	-10.1612
▁이하	-10.1613
▁수송	-10.1621
되면	-10.1622
조직	-10.1623
▁전공	-10.1624
▁재판	-10.1632
▁자금	-10.1633
▁기록한	-10.1641
▁나타내는	-10.1643
▁한반도	-10.1643
▁망명	-10.1644
▁출연하였고	-10.1644
중앙	-10.1651
▁공주	-10.1656
la	-10.1658
군과	-10.1658
▁혼	-10.1659
▁보낸	-10.166
▁양자	-10.1663
▁맹	-10.1669
▁쓰는	-10.167
▁상업	-10.1672
▁유사한	-10.1672
낸	-10.1673
02	-10.1677
▁낮	-10.1679
▁일대	-10.1686
▁장소	-10.1686
78	-10.1688
▁여기에	-10.1688
世	-10.1691
▁체제	-10.1695
밍	-10.1698
新	-10.1699
▁뜻으로	-10.1701
▁금융	-10.1702
▁1959	-10.1703
▁예정	-10.1704
▁사용되고	-10.1704
▁1954	-10.1706
▁소수	-10.1706
으	-10.1712
▁개최된	-10.1713
▁부활	-10.1713
▁후에는	-10.1724
▁시의	-10.1727
위원	-10.173
▁취급	-10.1733
76	-10.1736
▁솔	-10.1744
▁비교	-10.1751
▁소리	-10.1753
▁지금까지	-10.1754
▁연출	-10.1755
특	-10.1756
▁죄	-10.1757
베이	-10.1761
▁1919	-10.1765
84	-10.1766
득	-10.1772
인들은	-10.1777
▁해에	-10.1779
▁챔피언스리그	-10.1779
▁괴	-10.1785
▁방영된	-10.1793
▁사람들	-10.1797
▁아들로	-10.1808
▁질병	-10.181
▁후지	-10.1811
▁명이	-10.1811
▁하늘	-10.1815
▁입자	-10.1817
96	-10.1818
▁청년	-10.1819
▁자살	-10.182
▁굴	-10.1821
▁방법으로	-10.1824
▁예측	-10.1826
리를	-10.1829
▁이룬다	-10.1833
▁원소	-10.1834
▁트리	-10.1835
구에	-10.1837
kg	-10.1839
▁1952	-10.184
▁신호	-10.1844
▁차트	-10.1845
▁인기	-10.1845
▁오스만	-10.1846
▁보안	-10.1853
▁나와	-10.1856
▁제시	-10.1861
co	-10.1863
53	-10.1867
▁능력	-10.1867
▁발견된	-10.187
▁공장	-10.187
▁반드시	-10.1874
학자	-10.1875
▁모아	-10.1877
▁열렸다	-10.188
▁한번	-10.1887
▁도달	-10.1888
▁최다	-10.189
▁진압	-10.1892
▁상징	-10.1895
43	-10.19
▁하나는	-10.19
▁피해를	-10.1906
ra	-10.1908
▁오래	-10.1912
▁거래	-10.1915
▁대학교에서	-10.1918
▁입장	-10.1918
▁합류	-10.1918
▁나왔다	-10.1919
ul	-10.192
▁근거	-10.1922
om	-10.1922
▁동작	-10.1923
▁집안	-10.1925
▁전파	-10.1934
▁불렀다	-10.1936
▁변환	-10.1937
神	-10.1937
하였던	-10.1939
▁특별한	-10.1939
▁건너	-10.1939
▁군대를	-10.194
▁제대로	-10.1947
▁증거	-10.1948
▁머	-10.1949
69	-10.1953
500	-10.1956
▁빠르게	-10.1962
세와	-10.1966
▁1939	-10.1967
▁측면	-10.1969
▁수원	-10.1971
엄	-10.1972
번의	-10.1973
▁죽었다	-10.1973
▁코미디	-10.1978
▁메이	-10.1979
솔	-10.198
▁작품이다	-10.198
▁행위	-10.1981
ce	-10.1983
▁단지	-10.1983
▁논의	-10.1984
▁역을	-10.1985
▁린	-10.1993
▁둘째	-10.2001
▁한국에서	-10.2004
▁건국	-10.201
▁것이며	-10.201
▁시리아	-10.2012
▁화면	-10.2016
▁수집	-10.2017
음을	-10.2017
▁끝난	-10.2018
▁사장	-10.2026
▁변경되었다	-10.2027
기와	-10.2028
▁깊은	-10.2036
지게	-10.2036
▁존재하는	-10.2038
▁얼굴	-10.204
▁알려졌다	-10.2053
▁건조	-10.2067
전에	-10.2076
인들이	-10.2084
se	-10.2085
ge	-10.2089
▁작품으로	-10.2091
▁목표로	-10.2095
제가	-10.2096
▁서버	-10.2097
▁기여	-10.2099
▁세르비아	-10.21
▁마지막으로	-10.2104
▁출	-10.2106
▁능력을	-10.2108
▁지급	-10.2108
▁운동을	-10.2113
▁이주	-10.2114
▁기초	-10.2119
▁전부	-10.2119
▁갖는	-10.2121
▁타이틀	-10.2124
▁트랙	-10.213
장의	-10.2134
▁기술을	-10.2137
▁반발	-10.214
▁개발한	-10.2141
▁선조	-10.2141
▁형태를	-10.2146
▁내용	-10.2149
▁해산	-10.2155
無	-10.2156
▁가졌다	-10.2159
▁가치	-10.216
.”	-10.2162
79	-10.2163
▁에어	-10.2168
이치	-10.2171
▁궁	-10.2171
▁합성	-10.2174
▁평가를	-10.2179
나는	-10.2179
▁자동	-10.218
▁공을	-10.2181
▁의장	-10.2182
▁33	-10.2183
74	-10.2185
and	-10.2185
콜	-10.2186
럼	-10.2189
였으나	-10.2189
▁보조	-10.219
▁선수가	-10.219
▁갔다	-10.2193
▁Me	-10.2193
▁PC	-10.2197
▁계기로	-10.2197
관을	-10.2198
▁아침	-10.2199
▁항구	-10.2203
龍	-10.2209
▁결	-10.221
려고	-10.2215
▁임대	-10.2218
▁분포	-10.222
▁최소	-10.222
어를	-10.222
▁선수단	-10.222
▁문장	-10.2223
▁했던	-10.2223
확	-10.2223
▁SK	-10.2223
▁임금	-10.2225
▁이전의	-10.2226
륜	-10.2227
▁겨울	-10.2229
▁활동했다	-10.2231
▁각각의	-10.2234
▁성우	-10.2235
▁반복	-10.224
《	-10.2241
▁1955	-10.2241
▁받았고	-10.2248
▁트	-10.2249
▁어떠한	-10.2253
▁이들의	-10.2255
▁연합군	-10.2255
맥	-10.2256
이었으나	-10.2262
▁카르	-10.2264
▁고용	-10.2264
▁외국인	-10.2268
프로	-10.2269
原	-10.2274
▁다수의	-10.228
▁베를린	-10.228
▁지어	-10.228
▁모여	-10.2282
▁마크	-10.2282
▁조합	-10.2284
▁강의	-10.2284
▁무덤	-10.2285
▁보여	-10.2288
▁준다	-10.2289
빙	-10.2293
▁위반	-10.2296
▁후기	-10.2301
▁장르	-10.2305
▁창설	-10.2307
▁않으며	-10.2312
원이	-10.2312
▁불과	-10.2314
▁가사	-10.2315
▁서비스를	-10.2316
▁정확한	-10.232
린다	-10.2322
렬	-10.2322
(17	-10.2323
▁교환	-10.2324
▁롯데	-10.2325
▁뜻하는	-10.2325
ard	-10.2328
예술	-10.2329
▁1942	-10.2332
투스	-10.2332
▁나타난다	-10.2335
de	-10.2335
호를	-10.2337
▁포위	-10.2339
▁지닌	-10.234
▁속도	-10.2342
▁중부	-10.2347
▁지시	-10.2359
▁주제	-10.236
▁대개	-10.2363
▁영역	-10.2367
▁천체	-10.2372
▁상황에서	-10.2379
병원	-10.238
▁수비	-10.2381
자인	-10.2381
▁FA	-10.2381
政	-10.2382
▁되자	-10.2385
▁만주	-10.2386
▁무리	-10.2386
▁1953	-10.2387
▁포함한다	-10.2388
▁언	-10.2393
▁신화	-10.2393
▁메인	-10.2397
▁세계대전	-10.2399
▁좀	-10.2403
만큼	-10.2404
ang	-10.2406
분류	-10.2407
42	-10.2409
▁구속	-10.2411
▁익	-10.2413
▁항복	-10.2413
▁동의	-10.2414
all	-10.2423
▁관할	-10.2425
▁예산	-10.2428
▁글을	-10.2429
조사	-10.2431
▁불법	-10.2437
웅	-10.2438
케이	-10.2445
릿	-10.2446
▁아카데미	-10.2449
▁마침내	-10.2449
▁요새	-10.2453
▁싸움	-10.2454
▁인권	-10.2454
▁마치	-10.2455
▁1957	-10.2456
▁불상	-10.2456
▁투어	-10.246
량이	-10.2461
▁노예	-10.2463
▁점점	-10.2471
▁36	-10.2474
▁왕국의	-10.2478
▁국제공항	-10.2478
▁챔피언십	-10.2484
납	-10.2484
졌고	-10.2491
원으로	-10.2491
▁쓰이는	-10.2492
▁세종	-10.2494
51	-10.2494
▁1000	-10.2495
▁개신교	-10.2501
▁상품	-10.2502
▁공유	-10.2506
41	-10.2512
▁이곳	-10.2514
▁들어서	-10.2518
▁자신들의	-10.252
우리	-10.252
▁정책을	-10.2523
사단	-10.2535
부의	-10.2536
▁아시안	-10.2545
힐	-10.2548
▁데이비드	-10.255
▁조금	-10.2551
son	-10.2552
▁경기는	-10.2561
폴	-10.2561
▁채택	-10.2562
▁향해	-10.2566
▁받을	-10.2569
▁워	-10.2571
▁1943	-10.2573
▁찬	-10.2573
▁남은	-10.2573
▁안에서	-10.2575
▁대통령이	-10.2575
▁카메라	-10.2577
미터	-10.2578
▁기록이	-10.2581
▁소재	-10.2584
▁정비	-10.2586
▁프로듀서	-10.2586
▁지방의	-10.2586
仁	-10.2587
▁모드	-10.2594
▁사례	-10.2596
트는	-10.2597
▁붉은	-10.2597
▁훗날	-10.26
▁작품은	-10.26
▁38	-10.2602
62	-10.2604
92	-10.2605
부인	-10.2606
▁모리	-10.2606
▁받는다	-10.2608
했다는	-10.2613
63	-10.2613
縣	-10.2613
비를	-10.2613
▁포함하고	-10.2614
되었을	-10.2616
▁높다	-10.2624
▁영화배우	-10.2632
▁셀	-10.2634
∼	-10.2635
었지만	-10.2636
▁감독으로	-10.2636
▁의학	-10.2641
院	-10.2641
▁조작	-10.2643
之	-10.2647
▁말에	-10.2648
▁후보로	-10.2651
▁로켓	-10.2655
넷	-10.2658
▁도서관	-10.2659
▁분할	-10.266
녕	-10.2664
▁정지	-10.2665
▁나는	-10.2675
▁명단	-10.2677
▁하였으나	-10.2678
▁측	-10.2681
▁살해	-10.2682
▁지금	-10.2685
▁개조	-10.2685
▁역이다	-10.2685
朴	-10.2686
지지	-10.2687
▁화산	-10.2699
회를	-10.27
▁전통적인	-10.2708
객	-10.2709
▁모양의	-10.271
▁하나인	-10.2714
▁제주	-10.2715
▁문제로	-10.2716
▁대부분은	-10.2716
里	-10.2721
로도	-10.2725
▁주고	-10.2728
사인	-10.273
▁화물	-10.2731
▁바르	-10.2733
시대	-10.2733
펠	-10.2736
본부	-10.2738
▁찰스	-10.2743
▁알아	-10.2743
받은	-10.2744
▁전설	-10.2747
▁나누어	-10.2747
▁센	-10.2749
61	-10.2751
▁기체	-10.2755
분에	-10.2761
▁니시	-10.2763
멸	-10.2765
▁추측	-10.2765
▁주장하였다	-10.2768
▁학위를	-10.2768
生	-10.277
▁교사	-10.2774
몰	-10.2787
▁명나라	-10.279
단의	-10.2793
▁서구	-10.2799
▁예정이다	-10.2799
▁퇴	-10.28
▁시조	-10.2802
▁In	-10.2803
▁경우는	-10.2804
꽃	-10.2804
ant	-10.2811
▁되며	-10.2814
▁제작한	-10.2816
▁범주	-10.2819
▁폭력	-10.2819
스카	-10.2822
官	-10.2823
興	-10.2824
▁지상역이다	-10.2828
93	-10.2831
네스	-10.2835
▁확정	-10.2842
▁학습	-10.2843
혀	-10.2843
▁분열	-10.2845
本	-10.2848
▁있음을	-10.2849
트로	-10.285
▁숨	-10.2853
▁나이로	-10.2854
▁인종	-10.2858
72	-10.286
▁주기	-10.2861
▁의미를	-10.287
▁견	-10.2874
經	-10.2875
▁호수	-10.2876
▁고도	-10.288
▁노르웨이	-10.2881
▁반대로	-10.2885
▁어린이	-10.2887
▁필요하다	-10.2888
▁태국	-10.2889
▁순위	-10.2889
▁역사적	-10.289
▁조절	-10.289
▁부근	-10.2892
▁신앙	-10.2897
▁아버지는	-10.2898
▁중이다	-10.2899
니스	-10.2899
개를	-10.2899
분의	-10.29
日	-10.2902
▁자원	-10.2904
▁감정	-10.2905
석을	-10.2906
趙	-10.2909
(1	-10.2909
▁부르는	-10.2913
▁크고	-10.2915
▁한국어	-10.2917
활동	-10.2917
▁손자	-10.2921
▁붙	-10.2922
철도	-10.2923
▁병원	-10.2926
단계	-10.2927
▁기지	-10.2933
▁제공한다	-10.2934
학적	-10.2936
▁논문	-10.294
호는	-10.2941
큐	-10.2943
▁백제	-10.2944
▁절대	-10.2944
▁아마	-10.2951
신문	-10.2951
▁척	-10.2953
▁일원	-10.2954
▁등장한다	-10.2954
▁당시에는	-10.2956
▁선거구	-10.2959
선은	-10.2961
▁시작한다	-10.2961
▁밀도는	-10.2965
▁구현	-10.2972
부에	-10.2973
▁의심	-10.2977
▁유행	-10.2978
▁그렇게	-10.2979
원의	-10.2984
▁쓰고	-10.2989
▁d	-10.2991
▁해당한다	-10.2993
▁활동하고	-10.2994
▁150	-10.2996
100	-10.2997
▁편입	-10.3006
▁연구소	-10.3007
▁터미널	-10.301
▁오랫동안	-10.3011
구조	-10.3015
▁직원	-10.3016
계획	-10.3017
▁생명	-10.3019
▁성당	-10.3021
게임	-10.3024
▁오페라	-10.3024
▁연구를	-10.3026
▁주전	-10.3027
▁프로그램을	-10.303
▁보컬	-10.3035
▁충격	-10.3037
요시	-10.3039
▁목사	-10.3039
▁관계가	-10.3043
비트	-10.3046
대사	-10.3054
번째로	-10.3057
▁특징	-10.3058
▁포함하여	-10.3061
▁없으며	-10.3066
▁내용은	-10.3067
▁총선	-10.3067
메이	-10.3067
▁이루어졌다	-10.3068
不	-10.307
▁스토리	-10.3073
71	-10.3088
원은	-10.309
ac	-10.309
忠	-10.3093
어는	-10.3095
▁보관	-10.3097
▁감독이	-10.3097
마르	-10.3106
▁법원	-10.3106
▁그들이	-10.311
형을	-10.311
▁가진다	-10.311
느	-10.3116
행위	-10.3118
▁만들어졌다	-10.3119
▁마이크로소프트	-10.312
會	-10.312
개국	-10.3123
▁KBO	-10.3124
부는	-10.3125
지구	-10.3126
▁기둥	-10.3128
▁존재하지	-10.3128
▁헬	-10.3133
바라	-10.3134
사이	-10.3139
▁뉴질랜드	-10.3144
▁대한민국에서는	-10.3147
▁발음	-10.3148
핀	-10.3149
▁감독을	-10.3149
▁의무	-10.3151
82	-10.3152
▁공업	-10.3156
▁연료	-10.3158
바르	-10.3159
▁앞에서	-10.3159
▁시카고	-10.3162
▁분야에서	-10.3163
▁것이라는	-10.3167
▁신체	-10.317
▁크다	-10.317
▁원년	-10.3177
▁유형문화재	-10.3183
텔	-10.3184
논	-10.3185
▁1936	-10.3191
죽	-10.3192
▁왕자	-10.3198
洞	-10.3198
~19	-10.32
핵	-10.3202
▁기도	-10.3203
ig	-10.3207
府	-10.321
▁출시되었다	-10.3212
▁놓	-10.3213
▁소비	-10.3216
▁시내	-10.3217
▁실현	-10.3217
사상	-10.3221
相	-10.3222
〉,	-10.3226
▁하였으며	-10.3226
▁for	-10.3228
비치	-10.3237
▁졸업하고	-10.3239
▁열대	-10.3243
카이	-10.3247
▁역으로	-10.325
門	-10.325
▁명칭은	-10.325
▁주어	-10.3252
연구소	-10.3254
서울	-10.3256
▁도전	-10.3259
der	-10.3259
81	-10.3264
都	-10.3266
▁대표하는	-10.3269
▁크로아티아	-10.3271
제로	-10.3273
▁시즌에	-10.3276
▁순간	-10.3279
바이	-10.3288
▁장수	-10.3289
젤	-10.3292
君	-10.3297
▁메모리	-10.3298
▁주민	-10.3298
▁서양	-10.33
▁합격	-10.3301
ent	-10.3301
▁시작된	-10.3305
부가	-10.3308
스러운	-10.3313
▁1938	-10.3322
▁팝	-10.3324
▁올렸다	-10.3331
ill	-10.3333
▁한자	-10.3338
▁진주	-10.3338
▁선정되었다	-10.3341
▁가격	-10.3341
▁작업을	-10.3345
▁건립	-10.3349
공화국	-10.335
▁완전	-10.335
▁고리	-10.3352
▁n	-10.3352
▁목록이다	-10.3354
ri	-10.3357
▁탄생	-10.3362
▁방송국	-10.3363
▁진보	-10.3365
▁정원	-10.3371
▁되	-10.3371
▁후원	-10.3375
▁대비	-10.3377
▁검은	-10.3381
▁신분	-10.3383
▁개봉	-10.3384
값	-10.3385
▁장착	-10.3388
▁구원	-10.3392
▁당선	-10.3397
▁주택	-10.3399
시스	-10.3401
▁입력	-10.3404
▁포기	-10.3405
▁방면	-10.3407
_6	-10.3407
▁글자	-10.3412
▁상당한	-10.3414
▁일부는	-10.3414
▁관광	-10.3416
▁공동체	-10.3417
▁발견되었다	-10.3418
▁로드	-10.3418
에선	-10.3419
▁힐	-10.3419
▁착	-10.3423
점이	-10.3424
소를	-10.3425
▁침략	-10.3427
▁이후로	-10.3429
스코	-10.3432
▁화가	-10.3436
▁가로	-10.3436
렉	-10.3447
▁나타나	-10.345
▁원형	-10.3455
롤	-10.3455
▁경우에	-10.3457
83	-10.3457
▁곤	-10.346
▁내용이	-10.3463
▁바뀌었다	-10.3474
▁위상	-10.3477
▁개시	-10.3478
▁셰	-10.3478
_3	-10.3479
▁재배	-10.348
▁유일하게	-10.3481
▁DNA	-10.3485
▁이승만	-10.3489
▁코치	-10.349
힌	-10.3491
▁규모의	-10.3497
▁잘못	-10.3498
스티	-10.35
▁1951	-10.3501
▁벡터	-10.3501
제는	-10.3503
▁확립	-10.3505
ong	-10.3506
▁깨	-10.3507
▁캘리포니아	-10.3507
▁배출	-10.3509
▁이름의	-10.3509
항공	-10.351
▁일어났다	-10.3511
li	-10.3513
▁극장	-10.3516
▁상태로	-10.3518
▁갈색	-10.3519
江	-10.3519
▁1910	-10.352
생활	-10.352
200	-10.352
▁살아	-10.352
▁업체	-10.3522
▁명칭	-10.3522
▁침입	-10.3523
▁거두었다	-10.3526
▁모양	-10.3527
▁되기	-10.3534
▁만족	-10.3534
▁세인트	-10.3534
▁소녀	-10.354
▁복무	-10.3544
▁루이스	-10.3548
트리	-10.3549
▁34	-10.355
和	-10.3551
▁원작	-10.3564
최	-10.3565
▁서명	-10.3566
▁킹	-10.3567
잡	-10.3568
▁e	-10.357
▁새롭게	-10.3578
▁사실이	-10.3578
치를	-10.3581
聖	-10.3584
▁방해	-10.3585
▁지은	-10.3586
▁많아	-10.3588
하이	-10.3595
▁설치된	-10.3595
▁혐의로	-10.3596
티스	-10.3596
73	-10.3598
▁통산	-10.3603
▁이루고	-10.3604
▁번주	-10.3606
▁신성	-10.3611
▁경제적	-10.3611
▁없다는	-10.3613
白	-10.3616
▁자리에	-10.362
▁얻은	-10.3622
▁독특한	-10.3623
▁교육을	-10.3623
문제	-10.3625
으면서	-10.3629
▁종이	-10.3631
▁때문	-10.3633
▁오토	-10.3641
▁곳으로	-10.3643
뿐	-10.3644
▁듣고	-10.3647
카드	-10.3647
▁도모	-10.3653
▁유대인	-10.3654
▁놓고	-10.3655
베리	-10.3656
▁가지는	-10.3656
▁가치가	-10.3657
▁현지	-10.3657
욕	-10.3658
▁않게	-10.3659
▁입장을	-10.3659
구역	-10.3664
▁현역	-10.3666
▁내전	-10.3666
五	-10.3667
켈	-10.3673
▁1937	-10.3673
▁값	-10.3677
▁영화는	-10.368
▁속한	-10.3681
▁관료	-10.3682
▁흑인	-10.3685
상태	-10.3686
▁나들목	-10.3686
▁임진왜란	-10.3688
▁고문	-10.3689
▁빠져	-10.3691
太	-10.3694
(2	-10.3694
▁소스	-10.3695
▁나뉜다	-10.3695
▁군이다	-10.37
▁개입	-10.3706
▁어려운	-10.371
永	-10.3713
▁마이	-10.3714
▁전선	-10.3715
▁사립	-10.3718
▁나오	-10.3722
▁내렸다	-10.3723
▁홍보	-10.3724
서는	-10.3725
고속도로	-10.373
▁지역으로	-10.3731
▁뮤지컬	-10.3735
셰	-10.3739
▁유사	-10.374
▁골을	-10.3743
▁십	-10.3744
使	-10.3744
▁다르게	-10.3746
▁하위	-10.375
쌍	-10.3752
▁그와	-10.3752
52	-10.3753
▁모형	-10.3756
▁무대	-10.3756
▁주관	-10.3757
▁공무원	-10.3758
com	-10.3761
▁상태에서	-10.3765
드라	-10.3767
▁덴	-10.377
▁고속도로	-10.3771
▁정치인이다	-10.3776
▁파크	-10.3784
▁사용된	-10.3784
면에	-10.3786
오카	-10.3788
▁사람들의	-10.379
퇴	-10.3791
▁전까지	-10.3792
▁작사	-10.3793
시오	-10.3795
▁복원	-10.3795
▁이라크	-10.3796
鄭	-10.3796
▁나폴레옹	-10.3799
-4	-10.38
▁접촉	-10.3805
▁중요	-10.3805
연맹	-10.3806
▁연결하는	-10.3811
▁축제	-10.3814
林	-10.3816
법에	-10.3819
▁성적을	-10.3819
▁제출	-10.3821
▁다소	-10.3822
▁징역	-10.3822
▁비난	-10.3826
▁곽	-10.3843
▁길을	-10.3843
억원	-10.3844
닉	-10.3844
▁제공하는	-10.3845
ist	-10.3845
▁황금	-10.3847
▁변형	-10.3847
▁실수	-10.3859
▁장애	-10.3861
▁대부분이	-10.3863
▁등급	-10.3867
▁베이	-10.3867
타운	-10.3869
▁1914	-10.3869
▁내의	-10.3874
▁1935	-10.3874
데스	-10.3875
▁데뷔하였다	-10.3881
▁자극	-10.3882
▁소속으로	-10.3882
옹	-10.3883
▁쓸	-10.3885
▁받았으며	-10.3885
▁협상	-10.3888
▁훈	-10.3888
▁마무리	-10.3893
▁의도	-10.3893
▁층	-10.39
▁인쇄	-10.3904
▁챔피언	-10.3906
▁따로	-10.3908
▁부상을	-10.3909
▁나타낸다	-10.3909
▁레드	-10.391
모리	-10.3911
종의	-10.3913
▁설립되었다	-10.3914
▁자치	-10.3916
ment	-10.3917
짐	-10.3919
▁질량	-10.3921
▁1932	-10.3921
▁유적	-10.3921
혁명	-10.3924
▁귀국	-10.3925
하므로	-10.3928
▁나타나는	-10.3934
세이	-10.3935
▁위원장	-10.3935
으로서의	-10.3936
동맹	-10.3937
▁집권	-10.3937
▁활약을	-10.3938
▁참석	-10.3939
▁보물	-10.3941
▁변화를	-10.3944
라면	-10.3947
▁펜	-10.3948
▁상대적으로	-10.3952
▁편이다	-10.3955
▁교류	-10.3958
▁저녁	-10.396
▁부분을	-10.3961
▁음악을	-10.3961
학회	-10.3962
▁해양	-10.3965
▁순서	-10.3973
시티	-10.3973
교통	-10.3974
ry	-10.3974
▁쪽	-10.3974
▁참여했다	-10.3976
▁절반	-10.398
받아	-10.3983
왕후	-10.3983
▁자본	-10.3989
▁중의	-10.3991
▁스페인의	-10.3991
행정	-10.3994
되	-10.3999
▁중화	-10.4
▁함락	-10.4002
▁미국과	-10.4003
▁나온다	-10.4005
▁효과	-10.4005
▁1918	-10.4006
▁들고	-10.4009
▁후손	-10.4009
所	-10.401
낭	-10.4011
▁아카	-10.4015
박쥐	-10.4016
ab	-10.402
▁신인	-10.4022
사령부	-10.4022
▁어깨	-10.4024
▁문신	-10.4024
▁일어나	-10.4025
▁당나라	-10.4025
▁가까이	-10.4025
io	-10.4027
▁콘서트	-10.4028
▁인상	-10.4034
▁맡은	-10.4035
▁수소	-10.4037
▁보았다	-10.4039
▁만들고	-10.404
▁브라	-10.4042
리우스	-10.4043
▁박정희	-10.4047
▁사태	-10.4048
▁조지아	-10.405
지대	-10.4058
漢	-10.4058
▁책임	-10.4061
▁보유하고	-10.4062
ver	-10.4062
▁온도	-10.4062
▁올림픽에서	-10.4068
op	-10.4073
▁사단	-10.4074
▁연간	-10.4075
▁지위를	-10.4075
▁도시이다	-10.4076
▁아이돌	-10.4082
▁민법	-10.4082
▁에드워드	-10.4083
밖에	-10.4087
▁사전	-10.4087
▁기회를	-10.4089
▁답	-10.4089
▁대선	-10.4094
률	-10.4095
조는	-10.4096
대신	-10.4097
▁특정한	-10.4097
▁논리	-10.4098
▁심각한	-10.4098
수로	-10.4098
▁37	-10.4105
▁강조	-10.4107
▁수도원	-10.4108
▁농구	-10.4109
▁사령관	-10.411
▁명예	-10.4111
왕의	-10.4121
▁만든다	-10.4123
▁대회에	-10.4125
렛	-10.4129
ell	-10.413
▁못하였다	-10.4133
▁여왕	-10.4136
첩	-10.4136
▁바이에른	-10.4137
▁업	-10.4139
▁사용했다	-10.4142
▁영화배우이다	-10.4143
▁방정식	-10.4144
ph	-10.4144
켄	-10.4146
▁보병	-10.4148
▁서울대학교	-10.4157
▁이로	-10.4158
▁광장	-10.4158
▁탈퇴	-10.416
▁법칙	-10.417
▁알리	-10.4173
▁액션	-10.4188
▁제일	-10.4189
▁사마	-10.4191
라며	-10.4191
▁쉬	-10.4195
▁빛	-10.4197
one	-10.4202
이드	-10.4202
이닝	-10.4203
▁일부를	-10.4211
▁차별	-10.4213
▁홋카이도	-10.4213
ay	-10.4214
▁De	-10.422
▁연안	-10.4222
▁참전	-10.4222
▁스타일	-10.4223
▁주력	-10.4223
▁일본인	-10.4224
▁곡을	-10.4227
▁않기	-10.4227
▁이른다	-10.4227
▁참조	-10.4234
▁판결	-10.4236
천군	-10.4237
▁1933	-10.4238
▁세이	-10.424
톨	-10.4246
▁곡은	-10.4247
▁전면	-10.4253
▁올려	-10.4255
▁공연을	-10.4255
▁게이	-10.4262
ate	-10.4262
대상	-10.4264
▁맞아	-10.4264
▁감사	-10.4267
記	-10.427
▁헤이	-10.4273
▁중에는	-10.4275
▁케이	-10.4279
▁핀	-10.428
▁금메달을	-10.4281
군으로	-10.4281
▁대화	-10.4284
▁재산	-10.4286
有	-10.4291
▁떠났다	-10.4291
▁위로	-10.4293
▁영웅	-10.4295
▁일본어	-10.4297
▁당초	-10.4298
▁들어갔다	-10.4298
스테	-10.4302
▁맞서	-10.4303
▁화성	-10.4303
▁필요가	-10.4314
▁대장	-10.4317
▁아랍	-10.4319
오는	-10.4321
▁넣어	-10.4323
▁캐나다의	-10.4327
▁엄청난	-10.4329
▁행렬	-10.4332
▁날개	-10.4333
▁테러	-10.4333
▁부분이	-10.4339
91	-10.4342
▁본부	-10.4343
▁중인	-10.435
성에	-10.4354
▁근처에	-10.4356
▁토론토	-10.4357
▁공중	-10.4358
▁이혼	-10.4361
▁콩	-10.4362
▁공산주의	-10.437
▁진행되었다	-10.4374
▁놀	-10.4375
▁혜	-10.4379
▁한글	-10.4382
▁세력을	-10.4382
est	-10.4382
만명	-10.4382
▁있었기	-10.4383
까지의	-10.4383
▁나아가	-10.4384
▁분해	-10.4384
Q	-10.4385
▁불만	-10.4386
ma	-10.4386
▁말레이시아	-10.4387
▁완공	-10.4389
▁신설	-10.4393
▁선전	-10.4396
▁항의	-10.4398
▁작동	-10.4399
▁떠	-10.44
▁멀리	-10.4401
▁인구가	-10.4403
▁샤를	-10.4404
넬	-10.4405
▁통상	-10.4405
▁고향	-10.4406
주를	-10.4409
▁생긴	-10.4411
당시	-10.4413
▁사업을	-10.4413
▁지금은	-10.4413
▁임기	-10.4415
定	-10.4416
▁조카	-10.4419
▁발굴	-10.442
▁병합	-10.4426
▁병사	-10.4426
▁사람들을	-10.443
▁남겼다	-10.4433
호가	-10.4433
버그	-10.4433
▁리처드	-10.4434
(14	-10.4439
공업	-10.444
제의	-10.4443
▁창당	-10.4445
▁군단	-10.4445
▁히로	-10.4447
▁가설	-10.4447
사랑	-10.4449
해진	-10.4449
▁동일	-10.4451
▁장악	-10.4451
▁수여	-10.4455
ci	-10.4457
▁효과를	-10.446
다른	-10.446
▁도구	-10.446
▁태조	-10.4461
권의	-10.4464
▁못하는	-10.4465
▁운영하고	-10.4467
▁생존	-10.4467
▁성분	-10.4467
부사	-10.4468
▁비용	-10.4469
▁포트	-10.4469
▁혼인	-10.447
▁오직	-10.4475
▁넓이는	-10.4478
▁발생하는	-10.448
司	-10.4484
▁갖추고	-10.4485
▁전쟁에서	-10.4486
性	-10.4489
필드	-10.4492
▁가게	-10.4492
▁완료	-10.4493
▁아래에	-10.4493
사키	-10.45
▁의존	-10.45
▁일어나는	-10.4501
▁데에	-10.4503
▁침	-10.4503
▁재개	-10.4506
▁취소	-10.4507
▁탄소	-10.4515
조의	-10.452
▁노래를	-10.4523
▁제외	-10.4528
▁부친	-10.4529
▁웨스트	-10.4531
▁벌어진	-10.4531
▁불렸다	-10.4532
▁넘	-10.4535
▁애플	-10.4535
▁정수	-10.4537
ton	-10.4539
▁장교	-10.454
▁일정한	-10.4541
▁뿌리	-10.4542
▁이르렀다	-10.4543
昌	-10.4545
▁피아노	-10.4545
▁전직	-10.4547
▁이름이다	-10.4548
▁유학	-10.4549
지면서	-10.455
▁1928	-10.455
▁않지만	-10.455
▁1924	-10.4551
▁사망한	-10.4552
▁공정	-10.4552
art	-10.4554
理	-10.4558
해졌다	-10.4559
학생	-10.4559
▁다다	-10.456
▁상주	-10.456
라도	-10.4561
▁시위	-10.4561
▁폴리	-10.4564
▁페르시아	-10.4568
▁돈을	-10.4573
▁가문의	-10.4574
토스	-10.4579
▁미니	-10.458
島	-10.4587
▁점이	-10.4592
▁에스	-10.4592
ud	-10.4593
▁여겨진다	-10.4596
▁천주교	-10.4596
▁호주	-10.4596
▁1934	-10.4597
▁대체로	-10.4598
▁앞으로	-10.4601
▁살인	-10.4603
▁명을	-10.4606
▁위원	-10.4612
▁이로써	-10.4614
▁출연하였다	-10.4614
멜	-10.4614
▁초에	-10.4615
per	-10.4615
됨	-10.4616
▁왕이	-10.4616
▁세대	-10.4617
▁속해	-10.4618
▁아동	-10.4623
▁지형	-10.4624
▁이들을	-10.4625
에만	-10.4627
였지만	-10.4629
통신	-10.463
▁보여준다	-10.4631
▁손상	-10.4631
▁경성	-10.4631
▁약속	-10.4632
▁파이	-10.4633
▁사무실	-10.4635
▁꿈	-10.4636
▁재건	-10.4642
▁해도	-10.4646
▁기호	-10.4649
▁학살	-10.465
▁눈에	-10.4653
▁번의	-10.4655
▁올라가	-10.4661
▁세계적으로	-10.4662
없는	-10.4662
▁역은	-10.4667
▁중심지	-10.467
브라	-10.467
▁부모	-10.4671
▁확산	-10.4671
ex	-10.4672
▁아우	-10.4675
▁출범	-10.4675
▁방식	-10.4677
▁얻을	-10.4678
▁대한민국에서	-10.4679
▁전철	-10.468
▁주둔	-10.4681
▁간행	-10.4686
▁무게	-10.4689
▁감시	-10.4691
▁저술	-10.4693
▁+	-10.4697
▁부담	-10.47
▁남쪽으로	-10.4701
▁대한제국	-10.4702
sh	-10.4704
민족	-10.4706
▁행동을	-10.4709
▁불가리아	-10.4711
시로	-10.4713
ity	-10.4715
▁루마니아	-10.4716
▁주식회사	-10.4718
▁세상을	-10.472
세로	-10.4731
계를	-10.4733
j	-10.4733
▁기회	-10.4735
▁비롯하여	-10.4737
론을	-10.4738
▁사용하였다	-10.4739
하다고	-10.4739
▁동원	-10.4739
▁흘러	-10.4742
▁완전한	-10.4743
▁블루	-10.4747
▁서식지	-10.4751
▁유한	-10.4752
our	-10.4754
▁인류	-10.4755
▁1900	-10.4757
▁연구에	-10.4757
▁임의의	-10.476
▁보고서	-10.476
▁특징이다	-10.4761
▁것이라	-10.4763
▁조선시대	-10.4765
▁여러가지	-10.4768
▁거듭	-10.4773
▁중력	-10.4773
▁이르러	-10.4775
째	-10.4778
▁동양	-10.4778
▁즉시	-10.4784
랭	-10.4789
머리	-10.4789
▁구입	-10.4791
▁상위	-10.4791
단을	-10.4791
▁소련의	-10.4794
▁달라	-10.4794
소리	-10.4798
▁진격	-10.4799
▁환자	-10.48
▁잡아	-10.48
컬	-10.4801
▁프리드리히	-10.4803
▁지니고	-10.4804
▁아파트	-10.4805
▁석유	-10.4806
▁참가했다	-10.4809
▁인천광역시	-10.4811
▁지점	-10.4812
둔	-10.4823
▁선박	-10.4825
▁되는데	-10.4825
▁모습	-10.4826
小	-10.4827
善	-10.483
대표	-10.483
▁말하는	-10.4838
▁피부	-10.4841
▁단편	-10.4841
▁구성원	-10.4848
▁County	-10.4849
▁사운드	-10.485
▁모임	-10.485
당했다	-10.4853
▁원인이	-10.4854
▁주장한다	-10.4858
▁학자	-10.4861
▁만다	-10.4862
▁AFC	-10.4862
뢰	-10.4867
▁변수	-10.4869
휘	-10.487
럴	-10.487
▁원리	-10.4871
▁책임을	-10.4876
량을	-10.4878
▁델	-10.488
▁추천	-10.4881
▁여섯	-10.4882
▁깊이	-10.4885
되거나	-10.4885
▁크로	-10.4888
▁왕비	-10.4889
St	-10.4891
저우	-10.4892
▁시스템을	-10.4893
▁곳이다	-10.4896
▁기록은	-10.4901
▁출력	-10.4902
▁좌우	-10.4906
▁성공을	-10.4912
▁수상하였다	-10.4912
mo	-10.4912
▁미국인	-10.4914
▁활	-10.4915
敎	-10.492
▁선고	-10.492
장군	-10.4921
ho	-10.4925
▁메이지	-10.4927
괴	-10.4927
▁초등학교	-10.4932
체를	-10.4934
▁영향	-10.4936
▁그리하여	-10.4939
堂	-10.494
환경	-10.494
또는	-10.4944
no	-10.4946
尹	-10.4948
▁라이트	-10.495
활동을	-10.496
▁들면	-10.496
▁수영	-10.4961
▁타자	-10.4962
▁이후에도	-10.4962
▁결승전	-10.4968
▁지지를	-10.4968
▁장면	-10.4969
▁창작	-10.4976
▁인공	-10.4977
▁우려	-10.4977
▁사라	-10.4983
▁기본적으로	-10.4988
▁아름다운	-10.4988
▁동기	-10.4989
▁집행	-10.499
▁번호는	-10.499
컨	-10.4991
코프	-10.4991
▁일본에	-10.4991
족의	-10.4991
▁전역	-10.4997
▁음성	-10.5005
▁서술	-10.5007
の	-10.5009
▁접한다	-10.5011
▁이루는	-10.5011
▁전송	-10.5015
3%	-10.5015
▁카이	-10.5018
드라마	-10.5019
역으로	-10.5019
▁이전에는	-10.5021
▁홈런	-10.5021
▁이끌었다	-10.5022
▁김일성	-10.5025
▁북쪽으로	-10.5025
▁가수이다	-10.5028
▁구매	-10.503
▁리더	-10.5032
▁인용	-10.5033
▁대공	-10.5038
▁코스	-10.5041
▁신청	-10.5041
▁선출되었다	-10.5045
▁그곳에서	-10.5047
▁상실	-10.5047
국제	-10.5052
▁역사를	-10.5052
▁희망	-10.5056
pe	-10.5056
▁개성	-10.5059
등의	-10.5059
▁트레	-10.506
▁1931	-10.5061
▁설치류	-10.5062
▁앙	-10.5062
권이	-10.5067
▁있었다고	-10.5067
활	-10.5072
▁문헌	-10.5073
국민	-10.5074
금을	-10.5075
▁아들인	-10.5078
▁임무	-10.5081
별로	-10.5081
▁조선총독부	-10.5081
▁빌보드	-10.5082
▁양쪽	-10.5083
털	-10.5084
들에서	-10.509
▁플라	-10.5093
▁오른	-10.5095
2%	-10.5099
ag	-10.51
▁밀려	-10.5112
▁노벨	-10.5115
▁올림픽에	-10.5116
’(	-10.5117
▁받아들여	-10.5123
▁유형	-10.5127
▁유럽의	-10.513
8%	-10.5134
▁플레이오프	-10.5134
▁본다	-10.5135
▁갑자기	-10.5135
▁않으면	-10.5136
▁발명	-10.5142
▁재학	-10.5143
▁운영하는	-10.5147
휴	-10.5148
우는	-10.5149
▁발언	-10.515
▁맞이	-10.5153
▁벗어나	-10.5153
▁없을	-10.5153
_7	-10.5155
▁전화	-10.5156
촉	-10.5157
▁게다가	-10.516
▁나타났다	-10.5163
▁문명	-10.5163
▁페르	-10.5169
▁성을	-10.5172
▁초기의	-10.5175
▁아키	-10.5177
▁검찰	-10.5177
▁잭슨	-10.5178
렐	-10.5178
▁녹색	-10.5187
▁아라	-10.5188
▁저지	-10.5189
面	-10.5191
수의	-10.5192
에서부터	-10.5202
파의	-10.5204
od	-10.5206
▁미래	-10.5208
편성	-10.5209
▁관련이	-10.5212
▁이른바	-10.5213
오스	-10.5214
▁뛰	-10.5216
▁혈	-10.5218
–	-10.5219
우드	-10.522
▁전투기	-10.522
▁브라운	-10.5222
▁대통령은	-10.5223
▁39	-10.5226
▁하에	-10.5227
▁터널	-10.5228
하에	-10.5229
▁조선의	-10.523
▁상당	-10.5231
▁위기	-10.5236
소설	-10.5236
▁옷	-10.5237
이었지만	-10.5237
▁g	-10.5237
▁발간	-10.5238
▁비트	-10.5239
스토	-10.5244
대장	-10.5245
▁차지하고	-10.5246
▁악기	-10.5249
▁복합	-10.525
▁싱가포르	-10.5254
▁Q	-10.5256
▁겐	-10.526
▁피터	-10.526
장치	-10.5262
▁세부	-10.5265
개가	-10.5265
▁컵	-10.5267
▁동안에	-10.5273
▁자라	-10.5273
▁상속	-10.5274
▁영주	-10.5274
▁군의	-10.5277
맹	-10.5277
▁사형	-10.5279
역을	-10.5284
▁일으켰다	-10.5285
▁42	-10.5285
▁지속적으로	-10.5286
▁이상이	-10.5286
▁너	-10.5294
라인	-10.5306
만원	-10.5307
간다	-10.5308
▁혼란	-10.531
▁사원	-10.5312
▁파악	-10.5312
▁로스앤젤레스	-10.5316
관으로	-10.5323
河	-10.5325
▁추기경	-10.5328
▁그것이	-10.5329
지마	-10.533
崔	-10.5331
넌	-10.5337
인들의	-10.5337
BS	-10.5338
했	-10.5341
▁위치를	-10.5341
으로도	-10.5343
▁개방	-10.5344
▁혼합	-10.5344
▁문제에	-10.5345
▁나카	-10.5347
▁나뉘어	-10.5347
낼	-10.5348
잠	-10.5348
1%	-10.5351
▁구별	-10.5352
앤	-10.5354
당한	-10.5357
▁1925	-10.5358
▁가슴	-10.5359
▁한국인	-10.536
▁대상이	-10.536
장에	-10.5362
▁탈락	-10.5364
▁도쿄도	-10.5367
▁흰	-10.5367
▁승객	-10.5368
▁크리스	-10.5369
▁따서	-10.5376
▁개설	-10.5377
▁테스트	-10.5378
▁로봇	-10.5379
▁패션	-10.5379
함과	-10.5388
▁기록되어	-10.5393
▁청구	-10.5394
▁1921	-10.5395
삭	-10.5397
지방법원	-10.5399
▁전쟁에	-10.5408
법은	-10.5409
▁달려	-10.5409
▁상황을	-10.541
▁1929	-10.5411
▁쿠데타	-10.5412
▁아래와	-10.5414
心	-10.5415
룸	-10.5415
데이	-10.542
4%	-10.5424
윈	-10.5424
▁그에	-10.5425
▁부하	-10.5427
도서관	-10.5428
▁선포	-10.5429
▁권력을	-10.543
ers	-10.5432
▁추가로	-10.5433
▁복잡한	-10.5435
극장	-10.5435
▁빅	-10.5435
▁사냥	-10.5438
▁원인	-10.5438
▁말로	-10.5438
▁타율	-10.5441
잉	-10.5443
▁1923	-10.5443
▁민주주의	-10.5444
러스	-10.5445
롬	-10.5446
식이	-10.5446
▁없게	-10.5448
▁주간	-10.545
▁궁전	-10.5451
▁보기	-10.5452
▁중학교이다	-10.5452
▁베네치아	-10.5452
▁출간	-10.5453
▁고속	-10.5454
ha	-10.5455
▁편찬	-10.5456
▁방식을	-10.5457
인조	-10.5458
▁포인트	-10.5461
▁이민	-10.5462
TA	-10.5467
▁설득	-10.5474
▁카라	-10.5474
비가	-10.5475
▁좋지	-10.5475
하여야	-10.5477
층에	-10.5478
▁형식으로	-10.5479
트를	-10.548
▁세상	-10.5481
캐	-10.5482
▁의미하는	-10.5483
▁전신	-10.5483
▁역임하였다	-10.5484
▁만한	-10.5489
▁테마	-10.5491
▁파워	-10.5491
▁연결되어	-10.5492
▁골든	-10.5492
▁갖는다	-10.5493
프레	-10.5498
▁부분은	-10.5498
구의	-10.5499
▁밝혀졌다	-10.55
▁바위	-10.5503
전자	-10.5504
▁일으켜	-10.5505
▁검토	-10.5506
▁55	-10.5516
미국	-10.5517
▁위에서	-10.5525
▁음반이다	-10.5526
MA	-10.5527
▁진학	-10.5532
▁허락	-10.5534
▁공화국의	-10.5539
▁융	-10.554
▁소식을	-10.5543
▁강점기	-10.5544
작전	-10.5544
▁책을	-10.5545
되게	-10.5545
략	-10.5546
전선	-10.5548
▁기록하며	-10.5551
▁털	-10.5553
▁매일	-10.5553
마루	-10.5555
▁뮌헨	-10.5557
▁주장을	-10.5561
오리	-10.5562
▁말이	-10.5564
▁바둑	-10.5571
시험	-10.5573
▁르	-10.5577
古	-10.5578
▁언덕	-10.558
▁활성화	-10.5581
선수	-10.5584
▁판사	-10.5586
▁의지	-10.5587
▁종류	-10.5589
▁위험	-10.5589
토리	-10.5592
ome	-10.5593
퍼드	-10.5593
했었다	-10.5596
▁비행기	-10.5596
되었기	-10.5597
▁산소	-10.5607
▁슬	-10.5608
▁대통령의	-10.5609
▁함대	-10.5612
▁1922	-10.5612
마사	-10.5613
▁출전하여	-10.5622
▁메리	-10.5626
시는	-10.5627
▁유통	-10.5627
즘	-10.5628
▁전동차	-10.5634
ER	-10.5637
공학	-10.5637
▁입단하였다	-10.5639
馬	-10.564
선거	-10.564
▁지위	-10.564
▁부부	-10.5643
ass	-10.5644
da	-10.5647
▁비상	-10.5648
6%	-10.5648
▁폐쇄	-10.5648
받	-10.565
▁베스트	-10.5651
▁그래픽	-10.5656
▁노부	-10.5656
사에서	-10.5658
▁죽음	-10.5663
탐	-10.5664
▁의문	-10.5665
▁칠레	-10.5666
푼	-10.5666
입니다	-10.5667
▁정치인	-10.5669
▁흰색	-10.5671
▁등장인물	-10.5673
▁상대식	-10.5674
▁동방	-10.5675
宮	-10.5678
▁승려	-10.5678
▁사양	-10.5679
▁부지	-10.568
7%	-10.568
▁대표로	-10.5684
▁서쪽으로	-10.5693
스턴	-10.5696
年	-10.5696
▁입고	-10.5697
▁해야	-10.5697
발전	-10.5698
자유	-10.57
▁모바일	-10.5702
▁연락	-10.5703
▁프로이센	-10.5703
▁단독	-10.5704
▁프랑스어	-10.5707
어서	-10.5708
me	-10.5708
됨에	-10.5708
bo	-10.571
▁총독	-10.5713
▁미리	-10.5715
▁주소	-10.5717
▁사건으로	-10.5719
▁섬의	-10.5721
▁그리스도	-10.5727
▁재임	-10.5729
▁청주	-10.573
▁열차가	-10.5734
▁단순한	-10.5737
대에	-10.5738
▁도시의	-10.5738
▁포함하는	-10.5739
▁DVD	-10.5743
닐	-10.5744
▁조상	-10.5744
구를	-10.5744
▁적도	-10.5746
▁시사	-10.5747
▁붙어	-10.5749
▁품	-10.5751
▁일부가	-10.5753
▁기소	-10.5753
|	-10.5755
▁바람	-10.5756
▁초기에	-10.5756
▁중학교	-10.5759
▁운항	-10.576
▁확률	-10.5764
▁압력	-10.5766
장에서	-10.5779
▁동쪽으로	-10.5779
▁뒷	-10.5779
▁역에서	-10.5782
▁증언	-10.5782
張	-10.5786
▁디스크	-10.5787
▁영국군	-10.5792
▁폭탄	-10.5792
▁조건을	-10.5794
▁지구의	-10.5795
▁48	-10.5798
▁본격적으로	-10.5799
뇌	-10.58
▁참가한	-10.5803
제국	-10.5804
▁유물	-10.5808
▁영국에서	-10.5811
학을	-10.5817
▁목성	-10.5822
▁만들기	-10.5822
▁브레	-10.5822
韓	-10.5825
▁하여금	-10.5829
▁습격	-10.5832
▁1926	-10.5834
▁논쟁	-10.5839
▁문을	-10.5844
EC	-10.5847
둥	-10.5847
▁우수	-10.5847
▁걸친	-10.5849
▁차단	-10.5849
▁재생	-10.585
▁주식	-10.5852
史	-10.5855
▁여겨	-10.586
四	-10.5861
▁충분히	-10.5862
▁균형	-10.587
디스	-10.5874
▁성공했다	-10.5878
▁전술	-10.588
먹	-10.5884
▁논란	-10.5884
▁계통	-10.5885
▁달하는	-10.5885
▁불가능	-10.5889
▁보이지	-10.589
▁배경으로	-10.5892
상과	-10.5892
▁탄핵	-10.5892
▁물을	-10.5893
▁처형	-10.5894
▁와서	-10.59
▁명칭을	-10.59
▁규제	-10.59
▁개체	-10.5901
▁차지	-10.5901
▁맺	-10.5902
▁참여한	-10.5902
▁윌	-10.5902
▁업무를	-10.5906
▁방언	-10.5907
▁계속해서	-10.5908
▁그려	-10.5912
등을	-10.5913
▁그리스어	-10.5916
등이	-10.5918
▁낭	-10.5922
▁최우수	-10.5922
▁매장	-10.5925
▁못한다	-10.5927
▁자국	-10.593
▁신부	-10.5934
▁몬	-10.5937
▁별도의	-10.5937
▁밝은	-10.5938
▁검색	-10.594
▁굳	-10.5943
조에	-10.5943
라스	-10.5945
▁숫자	-10.5945
▁고유	-10.5945
▁분쟁	-10.5946
▁묵	-10.5951
▁촉	-10.5952
중에	-10.5952
르트	-10.5955
▁노리	-10.5956
▁부르	-10.5959
▁처벌	-10.5959
▁사제	-10.5959
수록	-10.5959
틱	-10.5959
▁구글	-10.596
▁이웃	-10.596
▁법정	-10.5962
▁심장	-10.5966
널	-10.5966
▁속의	-10.597
▁찬성	-10.5972
박물관	-10.5975
중인	-10.5975
▁보여주는	-10.598
▁신장	-10.5981
▁축소	-10.5981
▁스티븐	-10.5986
룬	-10.5987
▁일단	-10.599
▁인생	-10.599
ian	-10.599
▁타격	-10.5991
▁진영	-10.5992
티아	-10.5992
▁롤	-10.5992
▁특징을	-10.5993
▁캠퍼스	-10.5998
▁있으므로	-10.5999
▁1927	-10.5999
▁먼	-10.6003
연구원	-10.6005
시가	-10.6005
▁정교회	-10.6006
법이	-10.6006
▁방법은	-10.6009
▁쥐	-10.601
ast	-10.6011
▁주석	-10.6013
ub	-10.6013
▁써	-10.6014
師	-10.6017
관이	-10.6017
▁가상	-10.6018
열차	-10.6018
마을	-10.6019
▁인물로	-10.6021
▁추구	-10.6024
▁수치	-10.6025
물질	-10.6027
카르	-10.6028
主	-10.603
▁노출	-10.6032
▁국방	-10.6033
▁게임이다	-10.6038
▁단순히	-10.6038
▁때의	-10.6041
동물	-10.6043
慶	-10.6044
si	-10.6046
▁주니어	-10.6047
▁피해자	-10.6048
▁전투를	-10.6049
타로	-10.605
▁순환	-10.6055
▁아테네	-10.6059
▁수단	-10.606
▁톰	-10.6062
▁롱	-10.6067
▁수십	-10.607
▁보유	-10.6075
노스	-10.6076
▁보이	-10.608
자들의	-10.608
넨	-10.6082
▁전반	-10.6083
▁문제는	-10.6087
▁인지	-10.6087
▁게임을	-10.6087
▁가톨릭교회	-10.6089
▁유래	-10.6092
▁러	-10.6093
ue	-10.6093
비는	-10.6095
▁개념을	-10.61
드리	-10.6101
▁밥	-10.6102
시키	-10.6103
되어야	-10.6104
▁돌아	-10.6105
군단	-10.6106
禮	-10.6109
▁플레이어	-10.6113
▁탄압	-10.6114
있	-10.612
▁수도권	-10.6121
▁1912	-10.6122
▁붙여	-10.6123
까지는	-10.6123
▁출연했다	-10.6124
▁사임	-10.6125
놀	-10.6129
▁성향	-10.6129
▁산하	-10.613
▁이어지는	-10.6133
장관	-10.6133
▁증상	-10.6134
▁참고	-10.6137
▁마시	-10.6139
▁체코	-10.6146
었	-10.6149
합니다	-10.6151
▁권리를	-10.6151
▁레알	-10.6152
▁≪	-10.6154
▁뛰고	-10.6155
▁64	-10.6155
▁농민	-10.6157
▁사람들에게	-10.6161
▁지었다	-10.6162
마이	-10.6164
▁끊	-10.6174
에서만	-10.6174
▁형사	-10.6175
▁전문가	-10.6176
▁노선을	-10.6176
학원	-10.6182
▁태종	-10.6187
▁조선시대의	-10.6187
테스	-10.6188
▁보상	-10.6189
▁북미	-10.6193
▁사건은	-10.6194
상으로	-10.6195
▁대학원	-10.62
▁그들을	-10.62
▁임무를	-10.6203
▁호는	-10.6207
하였다고	-10.6209
▁북아메리카	-10.621
▁그녀가	-10.6211
위원장	-10.6212
▁계층	-10.6213
배우	-10.6216
▁압	-10.6217
▁계곡	-10.6218
▁집에	-10.622
차례	-10.6223
▁열리는	-10.6224
▁해상	-10.6224
낙	-10.6224
브리	-10.6231
▁돌아와	-10.6232
▁한정	-10.6235
▁프레	-10.6243
어가	-10.6243
칙	-10.6244
▁재즈	-10.6249
▁화석	-10.6254
시와	-10.6258
식물	-10.6259
▁1907	-10.6263
방식	-10.6266
▁정치가	-10.6267
주로	-10.6267
▁마주	-10.6268
▁영구	-10.6269
▁무시	-10.6269
▁수리	-10.6271
-20	-10.6273
▁몸을	-10.6275
▁복잡	-10.6276
sa	-10.6276
▁데이	-10.6277
▁라틴어	-10.6277
▁총선에서	-10.6279
▁소멸	-10.6282
▁명단에	-10.6282
정도	-10.6285
▁동해	-10.6288
▁진단	-10.6288
▁구성하는	-10.6291
▁프리미어리그	-10.6292
▁예비	-10.6293
▁관여	-10.6294
▁심판	-10.6296
▁징	-10.6298
공간	-10.6301
全	-10.6303
함수	-10.6309
知	-10.6313
▁밝혀	-10.6317
▁소화	-10.6318
▁자신	-10.6318
▁글로벌	-10.6318
▁열매	-10.632
▁상원	-10.6323
▁본토	-10.6326
타카	-10.6328
코스	-10.6328
▁1917	-10.6331
tion	-10.6332
▁그렇다면	-10.6332
▁로스	-10.6333
▁주목	-10.6335
▁가량	-10.6335
▁대법원	-10.6335
後	-10.6339
▁안타	-10.634
信	-10.6342
▁하기도	-10.6344
짓	-10.6344
▁했는데	-10.6344
▁모습이	-10.6346
▁최근에는	-10.6347
▁높	-10.6352
▁의견	-10.6353
▁태양의	-10.6353
▁t	-10.6355
▁종목	-10.6355
리와	-10.6357
▁일종의	-10.636
▁페이	-10.6361
▁정확히	-10.6361
▁주장하는	-10.6361
▁상을	-10.6361
▁스미스	-10.6362
▁마쓰	-10.6364
▁경남	-10.6367
얀	-10.637
▁플로	-10.6373
="	-10.6375
국이	-10.6376
▁김영	-10.6379
▁사유	-10.6381
▁안동	-10.6382
▁이외의	-10.6389
▁서울시	-10.639
▁지불	-10.6394
十	-10.6396
로운	-10.6399
▁출신이다	-10.6399
▁광복	-10.64
▁통화	-10.64
▁통계	-10.6401
▁본선에	-10.6402
▁수술	-10.6404
쇄	-10.6404
백만	-10.6405
▁쌀	-10.6406
▁Co	-10.641
▁보험	-10.641
▁물리학	-10.6411
▁이외에도	-10.6412
▁제도를	-10.6413
▁방위	-10.6417
부분	-10.6418
▁이적하였다	-10.6419
▁알파	-10.6423
등급	-10.6434
▁1908	-10.644
▁이용할	-10.644
▁용어	-10.6441
In	-10.6441
▁삶을	-10.6444
보호	-10.6444
</	-10.6446
답	-10.6446
세력	-10.6447
▁협정	-10.6448
▁히데	-10.645
▁총재	-10.6451
▁정면	-10.6451
▁강요	-10.6455
중국	-10.646
論	-10.6463
▁손을	-10.6465
▁몰	-10.6465
▁신고	-10.6469
▁원수	-10.6471
▁HD	-10.6476
▁이벤트	-10.648
▁–	-10.6481
였는데	-10.6483
ty	-10.6485
▁상태를	-10.6486
▁특별히	-10.6487
▁리그에서	-10.6489
▁중반	-10.6491
▁호소	-10.6491
▁프로그래밍	-10.6492
▁일련의	-10.6492
▁시작했고	-10.6494
▁골키퍼	-10.6495
▁도쿠가와	-10.6495
「	-10.6496
▁마음을	-10.6497
▁어렵다	-10.6498
▁있	-10.6501
▁최대의	-10.6501
▁사찰	-10.6501
▁야스	-10.6501
▁사정	-10.6507
▁마법	-10.6507
지기	-10.6509
▁민중	-10.6511
▁히트	-10.6511
승을	-10.6511
다리	-10.6515
리어	-10.6519
▁고양이	-10.6524
▁집필	-10.6526
▁고급	-10.6526
어와	-10.6527
▁부임	-10.653
▁정부에	-10.6533
▁포함된다	-10.6534
하시	-10.6535
松	-10.6537
▁내리	-10.6538
▁유기	-10.6541
▁핫	-10.6547
인과	-10.6547
▁사랑을	-10.6547
▁해발	-10.655
▁그들	-10.6552
▁경로	-10.6554
NA	-10.6559
▁감각	-10.6559
▁소집	-10.6561
▁맨체스터	-10.6563
▁이들이	-10.6564
▁견해	-10.6565
▁클래식	-10.6568
000	-10.6569
▁포함되었다	-10.6571
▁악화	-10.6572
end	-10.6572
▁문화재	-10.6572
▁띠	-10.6575
▁전쟁의	-10.6576
孝	-10.6576
▁보스턴	-10.658
9%	-10.658
▁대다수	-10.6581
▁정식으로	-10.6582
역사	-10.6583
▁수준	-10.6586
▁많	-10.6588
▁120	-10.6589
▁억제	-10.659
▁경향이	-10.6591
았고	-10.6591
▁발표된	-10.6595
▁형상	-10.6596
▁사법	-10.6597
▁1905	-10.6598
▁매주	-10.6601
종이	-10.6602
씨는	-10.6606
▁덜	-10.6609
▁부르기도	-10.661
民	-10.6615
▁취득	-10.6623
▁산화	-10.6623
▁상황이	-10.6624
▁강등	-10.6636
자로서	-10.6637
▁헌	-10.6642
▁내지	-10.6645
▁섬식	-10.6645
▁트레이드	-10.6645
▁이익	-10.6645
▁효소	-10.6646
▁초청	-10.6646
▁탐	-10.6649
▁힙합	-10.6651
)>	-10.6652
부문	-10.6652
▁쿠바	-10.6655
▁직전	-10.6658
▁승진	-10.666
▁동일본	-10.6661
▁You	-10.6661
심을	-10.6663
▁그러므로	-10.6665
▁나라의	-10.6665
▁명칭으로	-10.6666
▁원칙	-10.6666
▁갖게	-10.6672
년부터는	-10.6673
되는데	-10.6674
▁반응을	-10.6675
▁후속	-10.6675
▁잭	-10.6676
▁덮	-10.6678
치가	-10.6679
▁부속	-10.6682
▁유럽에서	-10.6683
▁웨	-10.6684
▁정기	-10.6685
▁국방부	-10.6686
커스	-10.6686
뉴스	-10.6689
▁w	-10.6693
리안	-10.6693
▁안내	-10.6695
▁전한	-10.6697
▁재위	-10.6698
재위	-10.6698
히로	-10.6701
자에게	-10.6702
_8	-10.6702
감독	-10.6704
▁왕실	-10.6707
▁담고	-10.6707
同	-10.6707
▁구성된다	-10.6707
▁장남	-10.671
▁커다란	-10.671
▁대구광역시	-10.6714
려는	-10.6716
므로	-10.6716
▁아버지가	-10.6718
▁사막	-10.672
▁내셔널	-10.672
▁의미로	-10.672
지자	-10.6722
▁죽음을	-10.6723
▁무한	-10.6725
▁실천	-10.6726
▁개장	-10.6726
佛	-10.673
▁끝내	-10.673
▁경기가	-10.673
▁숙종	-10.6732
자료	-10.6738
▁나고야	-10.674
▁김정	-10.6742
▁아버지의	-10.6744
대대	-10.6746
▁허가	-10.6747
▁협	-10.675
킬	-10.675
▁전원	-10.6752
시를	-10.6753
▁할아버지	-10.6753
라이트	-10.6753
▁재단	-10.6762
▁그때	-10.6762
하다는	-10.6763
▁경고	-10.6763
▁SS	-10.6764
通	-10.6766
▁무인	-10.6766
권에	-10.6767
▁항해	-10.6768
▁이어서	-10.6768
▁편지	-10.6775
▁초반	-10.6776
▁소위	-10.6776
▁하나가	-10.6777
▁역사가	-10.6777
년경	-10.6782
▁일은	-10.6782
▁티베트	-10.6783
ide	-10.6784
▁진나라	-10.6786
樂	-10.6786
뒤	-10.6786
것	-10.679
-5	-10.6791
조차	-10.6793
쿠스	-10.6793
▁영향으로	-10.6795
▁부진	-10.6795
통일	-10.6795
▁마틴	-10.6796
▁양산	-10.6796
웰	-10.6796
▁비판을	-10.6799
▁베이스	-10.68
▁식품	-10.68
어의	-10.6801
▁이재	-10.6802
▁연습	-10.6809
▁닥터	-10.681
▁클로	-10.6811
▁우리나라	-10.6811
▁공통	-10.6812
▁단순	-10.6812
(3	-10.6819
텍	-10.6819
▁켄	-10.6821
만으로	-10.6824
▁대우	-10.683
구치	-10.6831
▁교회의	-10.6835
▁사퇴	-10.6836
▁적극적으로	-10.684
겸	-10.6841
▁연평균	-10.6844
▁분산	-10.6844
▁끝으로	-10.6845
▁주연	-10.6846
▁착용	-10.6853
月	-10.6853
▁주된	-10.6853
▁발매한	-10.6858
▁사자	-10.6858
▁잠수함	-10.6862
▁갈등	-10.6862
▁사람으로	-10.6864
▁다음의	-10.6864
계에	-10.6864
▁유치	-10.6869
▁바르셀로나	-10.687
능력	-10.687
▁여부	-10.6874
▁남녀	-10.6879
▁41	-10.6881
▁현장	-10.6883
方	-10.6883
▁분위기	-10.6883
▁배열	-10.6884
▁영토를	-10.6888
▁1906	-10.6889
꼬리	-10.6891
▁편의	-10.6891
▁군수	-10.6895
▁WWE	-10.6897
▁모르	-10.6897
▁배포	-10.6898
▁동경	-10.69
▁차트에서	-10.6901
체의	-10.6902
▁열었다	-10.6902
▁전작	-10.6904
페이	-10.6904
숭	-10.6905
▁물리	-10.6906
▁이행	-10.6915
▁첫째	-10.6915
▁주민들	-10.6917
▁사과	-10.6918
▁초기에는	-10.6919
▁많았다	-10.6924
▁개량	-10.6924
▁택	-10.6925
도르	-10.6926
데르	-10.6929
▁고등	-10.6931
▁개국	-10.6938
▁소형	-10.6938
▁드라마이다	-10.6939
▁종전	-10.6939
단이	-10.6939
▁비롯해	-10.6945
▁모음	-10.6946
▁다음날	-10.6948
▁섬에	-10.6949
헬	-10.695
▁상황에	-10.695
▁Ma	-10.6951
▁다이묘	-10.6952
▁후퇴	-10.6954
▁리드	-10.6954
▁희생	-10.6954
ca	-10.6954
들로부터	-10.6956
▁가시	-10.6956
▁낸	-10.6958
八	-10.6961
▁로마의	-10.6965
▁잇	-10.6966
권은	-10.6967
▁곳이	-10.6968
▁하와이	-10.6969
형으로	-10.6972
▁지붕	-10.6975
▁어려움	-10.6977
▁추산으로	-10.6979
성군	-10.6982
성으로	-10.6983
▁라고	-10.6983
▁학사	-10.6984
▁구름	-10.6984
▁하우스	-10.6985
▁맺고	-10.6986
건설	-10.6987
▁지역구	-10.6988
▁밑	-10.6988
▁남아프리카	-10.6988
▁결승전에서	-10.699
淸	-10.699
▁인터뷰에서	-10.6992
▁부분에	-10.6993
do	-10.6994
▁목숨	-10.6995
▁듯	-10.6998
▁드러나	-10.6998
▁사항	-10.7001
▁코파	-10.7003
▁세계의	-10.7005
▁상호작용	-10.7005
▁이념	-10.7006
▁캘리포니아주	-10.7008
▁공학	-10.7009
▁약물	-10.7015
▁줄기	-10.7016
▁연산	-10.7017
▁대부분을	-10.7019
▁왕의	-10.7019
▁주인	-10.702
▁김성	-10.7021
▁양국	-10.7023
▁발휘	-10.7027
▁St	-10.7028
▁빙	-10.7029
▁한일	-10.7029
▁입법	-10.7032
혹	-10.7033
age	-10.7035
훈련	-10.7036
▁해리	-10.7036
▁접속	-10.7037
▁페이지	-10.7037
▁의석	-10.7039
▁입은	-10.704
▁웹사이트	-10.7042
당은	-10.7043
▁?)	-10.7046
化	-10.7048
▁저자	-10.7048
▁뒤로	-10.7049
▁중동	-10.705
▁해협	-10.705
▁후인	-10.7051
▁액체	-10.7054
▁직무	-10.7054
법원	-10.7055
부장	-10.7056
▁공개되었다	-10.7059
▁대량	-10.7059
▁사용하지	-10.7064
▁맺었다	-10.7066
▁스트	-10.7066
▁짜	-10.707
▁정조	-10.707
▁이시	-10.707
▁복수	-10.7072
(13	-10.7074
▁선로	-10.7075
▁유효	-10.7076
눈	-10.7076
민주당	-10.708
▁이곳에	-10.708
▁그려져	-10.7081
안을	-10.7085
▁감독은	-10.7087
▁본명은	-10.7088
로프	-10.709
식은	-10.7091
ak	-10.7091
▁오류	-10.7093
▁막기	-10.7094
ance	-10.7094
×	-10.7097
드로	-10.71
▁발표되었다	-10.7101
▁숭	-10.7102
▁반대하는	-10.7102
▁자치구	-10.7104
▁틀	-10.7104
▁기법	-10.7105
▁킬	-10.7105
받고	-10.7109
▁위치에	-10.711
劉	-10.711
▁오다	-10.7111
량은	-10.7113
▁또다른	-10.7117
랜	-10.7118
계에서	-10.712
▁방지	-10.712
▁홈런을	-10.712
단으로	-10.7124
▁김대중	-10.7126
▁옮겼다	-10.7127
▁자본주의	-10.7128
▁600	-10.7129
강에	-10.7133
▁클라	-10.7135
▁학술	-10.7137
소가	-10.7137
▁국가들	-10.7138
▁퀸	-10.7141
帝	-10.7142
▁독점	-10.7143
틸	-10.7143
▁단선	-10.7145
▁고위	-10.7146
и	-10.7149
리의	-10.7151
▁codice	-10.7156
市	-10.7158
▁얼	-10.7159
장과	-10.716
▁포로	-10.716
ive	-10.7161
▁43	-10.7167
▁영지	-10.7168
▁레오	-10.7168
▁넣	-10.7169
▁아메리칸	-10.7172
▁김구	-10.7173
프리	-10.7174
▁원래는	-10.7179
▁화이트	-10.7181
▁아스	-10.7182
▁대칭	-10.7182
▁강하게	-10.7184
▁농촌	-10.7188
▁사람이다	-10.7189
▁남아메리카	-10.719
대학원	-10.719
▁총장	-10.7191
부터는	-10.7191
▁가담	-10.7193
▁물체	-10.7195
▁이기	-10.7197
▁소련군	-10.7197
▁좁은	-10.7201
▁자매	-10.7202
▁커버	-10.7205
▁산지	-10.7206
▁번호	-10.7209
에너지	-10.7211
잎	-10.7212
go	-10.7213
中學校	-10.7221
▁보이고	-10.7224
▁발생한다	-10.7226
▁제주도	-10.7227
▁상수	-10.7229
羅	-10.723
▁흐름	-10.7234
▁서기	-10.7234
字	-10.7234
일간	-10.7235
아르	-10.7236
개혁	-10.7238
▁옆에	-10.7238
▁소득	-10.7241
▁새벽	-10.7242
쇠	-10.7243
공주	-10.7244
▁촌	-10.7245
켓	-10.7247
▁수석	-10.7248
▁올해	-10.725
▁차원	-10.725
▁머물	-10.725
▁대결	-10.725
되지만	-10.7251
졌으며	-10.7254
▁주위	-10.7254
士	-10.7256
속에	-10.7257
▁에르	-10.7259
▁근처	-10.7259
▁유전	-10.726
▁신사	-10.7261
부로	-10.7261
▁세리에	-10.7266
들어	-10.7268
▁약탈	-10.727
▁세금	-10.7272
▁당시에	-10.7272
▁데이터를	-10.7273
▁심지어	-10.7274
▁개별	-10.7274
▁가치를	-10.7274
OS	-10.7276
리지	-10.7276
▁성질	-10.7283
보험	-10.7283
▁전형적인	-10.7285
▁평면	-10.7286
▁주재	-10.7289
하라는	-10.7289
▁참가하였다	-10.729
▁대동	-10.7292
FC	-10.7293
됐고	-10.7295
▁미국은	-10.7296
▁읽	-10.7298
겔	-10.73
hi	-10.73
▁부탁	-10.7302
(6	-10.7304
▁개인의	-10.7304
▁스키	-10.7305
ow	-10.7309
▁과학적	-10.7309
▁코너	-10.7311
▁백인	-10.7312
현재	-10.7315
▁투쟁	-10.7319
▁추방	-10.7324
▁대만	-10.7327
▁방법이	-10.7332
▁사격	-10.7332
▁입사	-10.7332
▁소방	-10.7335
▁웨이	-10.7336
▁후에도	-10.7337
검사	-10.7337
▁크리	-10.7341
▁보건	-10.7341
▁국기	-10.7346
▁삭제	-10.7347
▁제외하고	-10.7348
▁사건에	-10.7349
權	-10.735
호선의	-10.7352
~20	-10.7353
단은	-10.7354
▁의혹	-10.7355
▁사기	-10.736
▁히로시마	-10.7361
ina	-10.7367
▁물고기	-10.7368
▁방송된	-10.7369
주었다	-10.7369
▁음반은	-10.737
▁기반을	-10.7372
▁요인	-10.7374
업체	-10.7379
었을	-10.738
▁주목을	-10.738
크는	-10.738
▁짐	-10.7381
▁자이언츠	-10.7381
▁차이	-10.7382
물이	-10.7383
속도	-10.7384
▁곡선	-10.7385
▁Ch	-10.7387
리고	-10.7389
▁진실	-10.739
▁기기	-10.739
▁뜻이다	-10.739
▁변신	-10.7393
자들을	-10.7394
▁올린	-10.7394
▁명시	-10.74
▁웨일스	-10.7403
▁고객	-10.7405
二	-10.7406
포트	-10.7408
ni	-10.7408
▁쇠	-10.7408
▁좋다	-10.7411
▁골드	-10.7414
▁부서	-10.7416
▁잡고	-10.7418
기능	-10.7419
▁예방	-10.7419
▁알고리즘	-10.742
▁삽입	-10.742
▁이르기까지	-10.7421
▁곤충	-10.7422
▁미국으로	-10.7423
▁영양	-10.7424
▁관점	-10.7426
▁일어난다	-10.7427
▁전북	-10.7428
▁상태가	-10.7428
▁인도의	-10.7432
▁그러	-10.7434
▁뮤직비디오	-10.7434
구가	-10.7436
▁나폴리	-10.7437
▁47	-10.7437
▁세력이	-10.7438
▁개명	-10.744
▁세워진	-10.744
▁동반	-10.7441
랴	-10.7441
▁말라	-10.7442
▁소송	-10.7442
▁코로나	-10.7442
▁전남	-10.7447
▁고안	-10.7448
▁영조	-10.7454
프트	-10.7458
▁전해	-10.7458
▁끌	-10.7462
▁돌아왔다	-10.7463
▁OS	-10.7464
tic	-10.7465
圖	-10.7466
▁800	-10.7469
▁거리에	-10.7472
뼈	-10.7472
지와	-10.7473
ind	-10.7476
▁탑승	-10.7482
▁빅토리아	-10.7485
▁이상을	-10.7487
▁매체	-10.7488
▁1,000	-10.749
下	-10.7491
▁나이에	-10.7492
oc	-10.7494
▁법안	-10.7496
AR	-10.7497
▁촉진	-10.7497
협의회	-10.7497
▁지휘관	-10.7501
▁행위를	-10.7501
▁조별	-10.7506
▁데뷔했다	-10.7512
▁격파	-10.7512
▁맡	-10.7513
ris	-10.7513
▁칼리지	-10.7513
형의	-10.7516
▁않았지만	-10.7517
о	-10.7517
▁Con	-10.7519
▁의견을	-10.752
중심	-10.7521
전기	-10.7521
▁알렉산더	-10.7523
▁수준의	-10.7525
▁폐지되었다	-10.7527
▁역할	-10.7532
▁설립한	-10.7532
▁그리스의	-10.7535
▁작품이	-10.7535
▁되기도	-10.7537
지며	-10.7542
di	-10.7543
▁빌리	-10.7544
분야	-10.7545
주의자	-10.7545
▁주문	-10.7547
프랑스	-10.7549
ary	-10.7552
▁코르	-10.7552
▁무릎	-10.7552
▁미치	-10.7553
▁문화재자료	-10.7556
▁거친	-10.7557
▁44	-10.7558
정신	-10.756
ai	-10.7561
▁사건의	-10.7563
▁흉	-10.7563
제품	-10.7564
▁야당	-10.7566
▁조선인	-10.7569
▁들었다	-10.757
▁경유	-10.7572
內	-10.7574
형이	-10.7575
▁JR	-10.7576
▁랩	-10.7578
▁위대한	-10.7578
▁근육	-10.7579
첨	-10.7579
▁소속의	-10.758
▁콜롬비아	-10.7581
Re	-10.7584
▁공화당	-10.7584
_9	-10.7584
▁출현	-10.7584
▁삼았다	-10.7587
았으며	-10.7589
▁추적	-10.7589
▁자녀	-10.7589
▁신뢰	-10.759
였기	-10.759
▁1904	-10.7591
the	-10.7591
▁명문	-10.7591
렘	-10.7591
▁래	-10.7592
하겠다고	-10.7592
▁토벌	-10.7596
▁임신	-10.7597
▁집을	-10.7598
브로	-10.76
▁생애	-10.7603
▁돌파	-10.7609
▁경제학	-10.7609
▁더불어민주당	-10.761
▁없지만	-10.7611
습니다	-10.7611
▁존스	-10.7613
▁실시된	-10.7615
▁죽자	-10.7615
▁등판	-10.7617
▁강도	-10.7617
▁이곳에서	-10.762
be	-10.7621
黃	-10.7624
▁윈도	-10.7625
▁후보가	-10.7626
령을	-10.7628
▁다루는	-10.7628
▁임시정부	-10.7629
▁Be	-10.7632
▁대성당	-10.7635
▁용어는	-10.764
물로	-10.7642
SS	-10.7643
▁발발	-10.7643
▁액	-10.7645
▁방송을	-10.7647
▁법적	-10.7648
▁압축	-10.765
▁영혼	-10.7655
孫	-10.7656
차전에서	-10.7657
타르	-10.7657
au	-10.766
▁발전을	-10.766
▁스웨덴의	-10.7661
▁일상	-10.7661
하면서도	-10.7665
▁부상으로	-10.7666
▁결의	-10.7666
집단	-10.767
▁손에	-10.767
▁엘리	-10.767
▁바닥	-10.7671
▁군사를	-10.7673
▁명으로	-10.7673
뇨	-10.7674
종으로	-10.7675
ap	-10.7676
▁Ro	-10.7677
▁인디언	-10.7678
표를	-10.7679
▁받으며	-10.768
▁특허	-10.7681
社	-10.7681
▁글씨	-10.7682
키아	-10.7683
▁운송	-10.7684
▁토마스	-10.7686
▁46	-10.7687
▁자식	-10.7691
▁파라	-10.7692
▁불화	-10.7693
▁경사	-10.7696
▁La	-10.7696
▁현상을	-10.7697
이라며	-10.7699
식으로	-10.77
洪	-10.77
▁들여	-10.7701
▁건물은	-10.7702
▁규슈	-10.7705
▁주체	-10.7705
주의를	-10.7706
▁문재인	-10.7707
▁x	-10.7707
▁히틀러	-10.7709
▁에너지를	-10.7709
리나	-10.7712
▁이론을	-10.7712
▁상영	-10.7713
▁기능이	-10.7716
▁교수로	-10.7716
▁유비	-10.7717
서원	-10.772
陵	-10.7722
▁돌려	-10.7728
▁포함된	-10.7733
하였을	-10.7734
▁75	-10.7735
▁소요	-10.7735
▁불안	-10.7737
▁화폐	-10.7737
▁예로	-10.7742
▁지원하는	-10.7743
▁관계에	-10.7744
▁중에서도	-10.7744
▁투구	-10.7746
▁두번째	-10.7746
名	-10.7747
▁댄스	-10.7751
▁블	-10.7761
▁되었는데	-10.7762
▁화합물	-10.7765
▁모험	-10.7767
▁바깥	-10.7768
▁선형	-10.7768
▁구상	-10.7769
▁양의	-10.777
▁차지하였다	-10.7775
pa	-10.7775
▁성격을	-10.7776
▁알려	-10.7776
천만	-10.7778
▁최종적으로	-10.7779
▁창간	-10.778
이거나	-10.7781
▁크루	-10.7783
▁적응	-10.7785
단에	-10.7786
▁전체를	-10.7786
▁도중에	-10.7788
▁메탈	-10.779
상이	-10.7791
▁박근혜	-10.7791
위의	-10.7792
▁대해서도	-10.7794
▁원하는	-10.7795
▁상처	-10.7795
▁브리	-10.7796
CC	-10.7797
▁담은	-10.7797
▁영화를	-10.7798
▁땅을	-10.7799
▁소규모	-10.78
▁k	-10.7802
雲	-10.7803
더스	-10.7805
명과	-10.7805
▁음악가	-10.7806
었기	-10.7807
▁주변의	-10.7809
상은	-10.7812
▁차지한다	-10.7812
▁그녀를	-10.7813
판을	-10.7813
重	-10.7814
▁페루	-10.7815
▁유발	-10.7816
%	-10.7816
체계	-10.7818
▁자신은	-10.7818
▁석사	-10.782
체가	-10.7822
▁독일어	-10.7827
▁독자	-10.7827
▁이성	-10.7829
▁가을	-10.7829
▁중국에서	-10.7833
▁광산	-10.7833
▁이루어진다	-10.7835
▁사회의	-10.7835
▁중지	-10.7836
▁모양으로	-10.7838
▁연계	-10.7838
▁로즈	-10.784
▁아티스트	-10.7842
▁타임	-10.7842
▁텍사스	-10.7845
처리	-10.7846
호의	-10.7847
▁재료	-10.7848
▁찍	-10.7848
▁차지하는	-10.7851
ner	-10.7853
▁구사	-10.7854
時	-10.7854
프는	-10.7855
▁고기	-10.7856
▁곳은	-10.7859
▁지켜	-10.7859
▁평생	-10.786
▁정도이다	-10.7861
qu	-10.7861
자원	-10.7861
포스	-10.7867
▁맞춰	-10.7869
▁중구	-10.7871
▁일곱	-10.7875
▁아리	-10.7876
▁프로세서	-10.7876
▁나선	-10.788
▁조종	-10.7881
▁상태에	-10.7882
▁지나지	-10.7883
▁올리	-10.7883
▁이날	-10.7884
▁한신	-10.7885
층의	-10.7888
이스	-10.7891
▁선물	-10.7891
▁면역	-10.7892
▁작품의	-10.7895
▁쓴다	-10.7895
▁쇠퇴	-10.7895
▁야마	-10.7897
▁대학교의	-10.7897
▁전체적으로	-10.7899
land	-10.7901
ah	-10.7901
▁파울	-10.7901
▁수밖에	-10.7906
▁넘겨	-10.7906
▁꾸준히	-10.7909
▁밀라노	-10.791
▁자체가	-10.791
함이	-10.7912
▁겨우	-10.7913
▁홈페이지	-10.7913
국은	-10.7913
IS	-10.7914
▁존슨	-10.7914
▁없었고	-10.7917
번호	-10.7919
▁1896	-10.7923
▁스탈린	-10.7924
▁동굴	-10.7925
졸	-10.7929
이후	-10.7929
트의	-10.7929
▁납치	-10.793
▁진술	-10.793
▁처음에	-10.793
守	-10.7931
▁삶	-10.7938
▁식량	-10.7941
ip	-10.7941
▁회사의	-10.7946
▁먹는다	-10.7953
▁유배	-10.7953
京	-10.7954
▁있어야	-10.7955
진을	-10.7958
▁이어졌다	-10.7958
▁레벨	-10.7962
▁거절	-10.7963
▁뼈	-10.7963
회에	-10.7964
▁곧바로	-10.7965
렸고	-10.7966
▁가족들	-10.7966
La	-10.7976
▁후반에	-10.7979
▁영국과	-10.798
▁문화적	-10.798
▁다르	-10.7981
▁행정구역	-10.7981
▁IC	-10.7982
▁블록	-10.7983
선과	-10.7984
▁삼각형	-10.7984
▁탁	-10.7985
▁직선	-10.7989
씨의	-10.7989
▁하던	-10.799
▁지중해	-10.7992
산성	-10.7992
▁지향	-10.7992
▁전승	-10.7993
콩	-10.7993
안전	-10.8001
에게도	-10.8001
▁봉기	-10.8001
者	-10.8003
▁철거	-10.8005
▁밖으로	-10.8006
▁세우고	-10.8007
▁빌딩	-10.801
▁추락	-10.8012
▁집회	-10.8013
▁공격수	-10.8015
▁적어도	-10.8015
▁김씨	-10.8017
寧	-10.8018
▁회색	-10.8019
▁농장	-10.802
▁동서	-10.802
기지	-10.8022
▁토머스	-10.8023
▁이용하는	-10.8024
▁거리를	-10.8026
▁명칭이	-10.8027
오르	-10.8027
▁삼아	-10.8031
▁의미가	-10.8032
▁불리며	-10.8033
▁건축물	-10.8033
▁이어져	-10.8033
▁결과로	-10.8034
▁전해진다	-10.8036
밥	-10.8038
▁주변에	-10.8038
▁서일본	-10.8039
▁주어진	-10.8041
개로	-10.8041
재단	-10.8042
▁독일군	-10.8043
들이다	-10.8044
▁1911	-10.8045
주와	-10.8045
▁라이벌	-10.8045
쿠라	-10.8046
정을	-10.8047
▁살았다	-10.8052
▁동화	-10.8053
법으로	-10.8053
▁매각	-10.8055
▁쌓	-10.8059
▁종교적	-10.8061
▁우리가	-10.8062
400	-10.8062
▁기본적인	-10.8062
▁말기	-10.8063
▁맞는	-10.8064
侯	-10.8067
▁플	-10.8069
어족	-10.8072
방법	-10.8073
▁모델로	-10.8073
華	-10.8074
▁일치	-10.8076
당의	-10.8079
▁없었던	-10.8079
체제	-10.8084
▁스승	-10.8087
▁면에서	-10.8087
▁수록되어	-10.8089
OR	-10.809
▁타워	-10.8093
ung	-10.8093
▁사촌	-10.8094
▁주최	-10.8096
▁복사	-10.8097
▁원주민	-10.8098
▁포르	-10.8101
▁주에	-10.8103
▁걷	-10.8104
物	-10.8104
▁배급	-10.8108
鎭	-10.8108
▁지역이	-10.8111
년만에	-10.8113
▁평등	-10.8114
니는	-10.8116
▁인기가	-10.8116
▁보이며	-10.8117
▁팬들	-10.8118
▁조항	-10.8121
▁크레	-10.8122
마치	-10.8123
▁소비자	-10.8128
▁거대	-10.8129
▁레이블	-10.8129
▁시절에	-10.813
吉	-10.8131
경찰	-10.8131
▁덕분에	-10.8132
▁한나라당	-10.8139
▁토너먼트	-10.8142
정에	-10.8144
중이다	-10.8146
▁마치고	-10.8146
▁냈다	-10.8149
▁명성을	-10.8151
▁스카이	-10.8151
▁부호	-10.8153
념	-10.8156
피스	-10.8158
▁공국	-10.8159
▁못하게	-10.816
▁사람에게	-10.816
▁관계는	-10.8161
▁아르메니아	-10.8161
인으로	-10.8163
렀	-10.8163
▁크기가	-10.8163
▁미분	-10.8165
▁토론	-10.817
▁아나	-10.817
형은	-10.817
600	-10.8171
▁부품	-10.8172
흘	-10.8175
▁수감	-10.8176
nowiki	-10.8177
▁체험	-10.8178
전문	-10.8178
▁이정	-10.8181
▁이하의	-10.8182
▁파키스탄	-10.8183
▁입었다	-10.8183
▁복구	-10.8184
체는	-10.8187
▁돔	-10.8189
▁항공사	-10.819
법의	-10.8193
300	-10.8193
ee	-10.8195
▁책은	-10.8195
비행	-10.8199
▁것들	-10.8202
▁호남	-10.8203
▁선임	-10.8206
▁도움이	-10.8209
▁믿음	-10.8211
▁없기	-10.8213
▁얻게	-10.8215
▁리눅스	-10.8215
▁행정구역이다	-10.8215
황제	-10.8216
▁졸업한	-10.8216
▁면적	-10.822
▁교리	-10.822
하지는	-10.8221
▁반면에	-10.8223
듯	-10.8226
웨	-10.8233
▁수직	-10.8234
▁아트	-10.8236
▁십자군	-10.8237
代	-10.8241
▁대학에서	-10.8242
룩	-10.8246
▁나타난	-10.8247
▁이종	-10.8247
▁샘	-10.8247
▁유역	-10.8248
상에	-10.8248
▁한강	-10.8251
集	-10.8253
▁다큐멘터리	-10.8253
▁이온	-10.8257
驛	-10.8261
▁북쪽에	-10.8261
▁오늘날의	-10.8262
▁거둔	-10.8262
드의	-10.8264
현재의	-10.8265
▁제자	-10.8265
▁셋째	-10.8273
진은	-10.8273
▁리이다	-10.8274
▁시점	-10.8274
톡	-10.8276
▁기부	-10.8277
▁시간에	-10.8279
하우스	-10.828
▁법인	-10.8281
▁공룡	-10.8281
▁해제	-10.8282
▁회로	-10.8287
시스템	-10.829
ica	-10.829
판이	-10.829
▁돌아온	-10.8296
▁실제로는	-10.8296
▁전향	-10.8299
▁일으킨	-10.83
트가	-10.83
▁등장한	-10.8301
▁바람에	-10.8303
兵	-10.8303
▁죽고	-10.8305
▁요코하마	-10.8305
조를	-10.8306
▁늑대	-10.8307
▁일환으로	-10.8307
▁주류	-10.8307
첸	-10.8308
▁항목	-10.831
해져	-10.831
▁가나	-10.831
계약	-10.8312
▁소리를	-10.8313
▁이루어	-10.8313
▁역전	-10.8315
▁페리	-10.8315
ba	-10.8316
▁유입	-10.8318
▁루트비히	-10.8319
▁디즈니	-10.8319
▁웅	-10.8319
▁권한을	-10.8321
과정	-10.8323
▁맛	-10.8324
▁크기는	-10.8324
▁없	-10.8325
선으로	-10.8325
▁수백	-10.8326
주가	-10.8331
▁그래프	-10.8331
IC	-10.8332
▁획득했다	-10.8333
▁동시	-10.8336
생산	-10.8337
노프	-10.8339
▁설치되었다	-10.834
▁기용	-10.8341
▁모습으로	-10.8342
ae	-10.8343
▁타입	-10.8347
▁Mo	-10.8349
▁불리	-10.8351
비스	-10.8352
하러	-10.8352
▁이탈	-10.8356
▁명명	-10.8358
▁지방에	-10.8358
▁듀	-10.836
▁제공하고	-10.836
▁왕위	-10.8361
▁Le	-10.8362
부르크	-10.8362
▁여성의	-10.8368
▁적극	-10.8368
▁아프가니스탄	-10.8369
▁아마추어	-10.8369
▁인디	-10.8374
▁주지	-10.8379
▁지원한다	-10.838
적으로는	-10.8381
▁박쥐	-10.8384
▁샌프란시스코	-10.8385
꾼	-10.8386
▁공간을	-10.8386
▁않았던	-10.8387
分	-10.8389
▁국장	-10.8393
▁주요한	-10.8396
년까지는	-10.8397
▁re	-10.8399
Al	-10.84
론은	-10.8401
▁앨범을	-10.8401
▁먹는	-10.8404
대와	-10.8406
독립	-10.8407
▁간에	-10.8408
▁왕가	-10.8411
▁환승	-10.8412
▁개척	-10.8412
주기	-10.8416
서비스	-10.8421
▁동영상	-10.8421
▁좌익	-10.8422
▁인근에	-10.8422
▁우리는	-10.8423
▁그라	-10.8424
우라	-10.8427
▁순수	-10.8431
▁딴	-10.8431
▁하천	-10.8432
▁우익	-10.8432
▁원자력	-10.8433
▁파티	-10.8433
즐	-10.8434
▁수반	-10.8438
▁유산	-10.8439
▁획득하였다	-10.8439
▁질환	-10.844
석은	-10.844
▁걸려	-10.8441
겠다고	-10.8441
em	-10.8442
▁실력	-10.8443
▁색깔	-10.8444
▁알바니아	-10.8444
시민	-10.8447
▁유인	-10.8448
철학	-10.8449
▁운동에	-10.845
▁종사	-10.8451
▁별로	-10.8452
체로	-10.8453
▁영광	-10.8454
하였기	-10.8456
▁대서양	-10.8457
▁BBC	-10.8462
▁모래	-10.8462
께	-10.8464
▁탐사	-10.8465
▁접하고	-10.8466
▁1909	-10.8467
으니	-10.8469
석이	-10.8469
▁반환	-10.847
▁집에서	-10.8476
〈	-10.8477
▁풍부한	-10.8482
▁자회사	-10.8487
▁경전	-10.8488
▁거기에	-10.849
木	-10.8491
▁유닛	-10.8491
▁아니었다	-10.8492
▁시계	-10.8493
▁빼	-10.8496
800	-10.85
달러	-10.8501
스포츠	-10.8505
▁간섭	-10.8507
▁반사	-10.8507
▁황제의	-10.8508
▁때문이었다	-10.8508
▁전세계	-10.8509
▁교역	-10.8509
▁드러내	-10.851
MS	-10.8511
▁수상자	-10.8515
е	-10.8515
▁졸업했다	-10.8515
▁줄어들	-10.8516
▁바꾸	-10.8518
int	-10.8518
▁영화의	-10.8518
▁프랑크	-10.8522
TS	-10.8527
▁모토	-10.853
▁수요	-10.8536
▁관하여	-10.8539
▁교향곡	-10.854
묵	-10.8545
▁봉해졌다	-10.8548
▁지연	-10.8549
국장	-10.855
▁종족	-10.8551
▁하원	-10.8552
體	-10.8554
▁사이를	-10.8555
▁비슷	-10.8555
퀴	-10.8559
前	-10.8561
▁색상	-10.8562
▁곳을	-10.8563
▁않았으며	-10.8563
일보	-10.8566
▁더블	-10.8567
▁변화가	-10.8568
야구	-10.8571
▁i	-10.8572
▁옆	-10.8572
宋	-10.8574
順	-10.8574
▁합동	-10.8574
▁원시	-10.8575
▁정권을	-10.8577
▁대대	-10.8578
▁아들이다	-10.858
섰	-10.8585
▁아니고	-10.8586
이라면	-10.8588
갔고	-10.859
▁h	-10.8594
콤	-10.8595
▁절차	-10.8595
▁대학의	-10.8597
▁패턴	-10.8599
사이드	-10.8602
▁엘리자베스	-10.8613
▁걸어	-10.8616
▁최신	-10.8617
해왔다	-10.8618
▁히가시	-10.862
▁당했다	-10.8621
▁대사관	-10.8622
▁이사회	-10.8623
대부	-10.8623
ke	-10.8624
▁화재	-10.8626
▁김종	-10.8628
페르	-10.863
▁지름	-10.8635
▁가공	-10.8636
▁요미우리	-10.8637
▁도시는	-10.8638
▁이끌	-10.8639
▁겪	-10.8639
타임	-10.8641
▁다음으로	-10.8642
▁스프링	-10.8642
버리	-10.8644
▁내장	-10.8644
▁망원경	-10.8645
▁입증	-10.8646
▁후쿠오카	-10.8648
▁음모	-10.8649
柳	-10.865
구는	-10.865
▁소재지	-10.865
베르크	-10.865
▁시청	-10.8651
품을	-10.8653
정의	-10.8654
衛	-10.8661
▁제약	-10.8662
▁앨	-10.8663
▁심리	-10.8666
▁남쪽에	-10.8669
▁황후	-10.867
▁왕족	-10.8675
전이	-10.8675
▁지내고	-10.8675
▁필요로	-10.8677
▁묘소	-10.8677
▁친일	-10.868
여자	-10.868
▁못해	-10.8683
운동을	-10.8685
▁퍼져	-10.8685
ick	-10.8687
bi	-10.8688
▁멸종	-10.8689
▁행복	-10.869
▁클	-10.8692
▁목소리	-10.8692
▁관심	-10.8692
▁인조	-10.8693
▁태도	-10.8695
▁계획이	-10.8696
나리	-10.8697
▁타인	-10.8698
▁계기가	-10.8699
≫	-10.87
되었다고	-10.87
▁바라	-10.8701
▁수호	-10.8704
▁두려워	-10.8705
▁Love	-10.8706
▁실내	-10.8706
▁사우스	-10.8708
인간	-10.8709
▁여동생	-10.8709
테르	-10.8711
▁인증	-10.8714
▁51	-10.8715
廣	-10.8718
▁간다	-10.8719
▁65	-10.8723
▁이치	-10.8724
ti	-10.8726
▁동아시아	-10.8728
▁벌였다	-10.8729
靑	-10.873
▁크기의	-10.873
▁스타디움	-10.873
모양	-10.8736
▁지정되어	-10.8737
▁급제	-10.8738
화학	-10.8739
공격	-10.874
▁옹호	-10.8741
▁대지	-10.8742
▁얻기	-10.8742
▁약화	-10.8743
▁라는	-10.8744
▁국민의	-10.8745
立	-10.8746
▁오리지널	-10.8746
▁흐	-10.8747
닛	-10.8747
▁SF	-10.8748
▁기관차	-10.875
작가	-10.8751
-7	-10.8752
▁노비	-10.8755
▁규모가	-10.8757
▁증기	-10.8757
▁마케도니아	-10.8758
▁흐르는	-10.876
▁지역에서는	-10.876
▁권위	-10.8761
▁후쿠	-10.8763
▁기재	-10.8764
we	-10.8764
▁영화제	-10.8765
AC	-10.8766
식의	-10.8767
탱	-10.8769
▁회담	-10.8771
▁말하며	-10.8774
▁사직	-10.8776
▁발생했다	-10.8776
▁정부를	-10.8776
▁출입	-10.878
이면	-10.878
▁아직도	-10.8782
▁나타내	-10.8783
▁애국	-10.8783
▁결과적으로	-10.8784
▁비슷하다	-10.8789
▁유고슬라비아	-10.879
▁앨런	-10.8791
▁가쓰	-10.8794
보를	-10.8794
바시	-10.8794
▁대전광역시	-10.8795
유키	-10.8795
리스트	-10.8795
민주	-10.8798
▁빵	-10.8798
▁쇼군	-10.8799
▁입문	-10.8799
▁하나님	-10.8802
▁《》	-10.8803
▁스테	-10.8803
▁고등학교이다	-10.8806
▁대회이다	-10.8806
여성	-10.8806
六	-10.8806
▁귀족들	-10.8807
▁세계적인	-10.8808
내는	-10.8809
▁말해	-10.8811
▁부동산	-10.8811
谷	-10.8815
왕이	-10.8815
DA	-10.8816
▁시민들	-10.8816
르는	-10.8817
▁레이다	-10.8819
▁적절한	-10.882
무늬	-10.8821
▁닌텐도	-10.8823
▁당해	-10.8827
▁구간이	-10.8827
피아	-10.883
▁뿐이다	-10.8831
ep	-10.8831
▁열어	-10.8832
▁사도	-10.8836
▁약간의	-10.8839
▁관심이	-10.8841
독일	-10.8841
▁초래	-10.8841
부와	-10.8843
다르	-10.8843
▁스마트폰	-10.8843
▁강을	-10.8846
분교	-10.8846
▁흙	-10.8847
▁타이틀을	-10.8847
九	-10.8851
▁치르	-10.8851
▁판타지	-10.8855
하라고	-10.8856
미르	-10.8857
트와	-10.8857
▁시드니	-10.8859
평가	-10.8861
▁구리	-10.8862
▁포유류	-10.8863
ll	-10.8864
▁아래의	-10.8865
▁당선되었다	-10.8866
▁중국어	-10.8869
▁카페	-10.8869
▁침해	-10.887
▁만난	-10.887
ley	-10.8871
周	-10.8872
▁NHK	-10.8873
▁선호	-10.8874
▁자가	-10.8877
Ch	-10.8877
▁역사는	-10.8878
행을	-10.888
공신	-10.888
▁시에	-10.8881
나이	-10.8882
▁1915	-10.8884
▁멀	-10.8888
▁EP	-10.8888
지사	-10.889
con	-10.8898
▁시집	-10.8898
진이	-10.8899
▁그랜드	-10.89
▁비잔티움	-10.89
▁주말	-10.89
▁못했고	-10.8901
▁그럼에도	-10.8904
▁공동으로	-10.8904
▁아나운서	-10.8905
▁참가하여	-10.8906
▁과거에	-10.8908
▁중립	-10.8908
HO	-10.8908
▁꾸	-10.8909
사우루스	-10.8913
▁분화	-10.8913
▁정통	-10.8914
▁멜	-10.8914
▁내가	-10.8915
즈의	-10.8915
▁인구의	-10.8917
▁끌어	-10.8919
그리	-10.892
▁산성	-10.8921
▁구체적으로	-10.8922
▁여객	-10.8922
▁서쪽으로는	-10.8929
▁브라질의	-10.893
▁서방	-10.893
▁Pro	-10.8934
▁물이	-10.8935
▁다룬	-10.8936
ve	-10.8936
-17	-10.8936
▁준공	-10.8936
▁포크	-10.8937
▁유신	-10.8938
-18	-10.8938
▁첫번째	-10.894
▁개수	-10.8945
▁아들이	-10.8946
▁추가되었다	-10.8947
業	-10.895
▁하사	-10.8951
ss	-10.8952
▁1913	-10.8952
▁선두	-10.8953
建	-10.8954
네이	-10.8954
▁Al	-10.8956
대한	-10.8958
▁효과가	-10.8962
▁프랑스군	-10.8962
▁노선이	-10.8963
▁축구단	-10.8964
▁프라	-10.8964
▁졸	-10.8967
▁민족주의	-10.8967
▁빚	-10.897
▁배제	-10.897
마저	-10.8973
▁국가가	-10.8974
인치	-10.8975
▁가능성을	-10.8978
▁대리	-10.8979
▁남긴	-10.8982
α	-10.8983
▁군사적	-10.8985
▁하드	-10.8986
▁당사자	-10.8987
국을	-10.8987
▁아울러	-10.8987
▁기병	-10.8987
▁하드웨어	-10.8987
관은	-10.8988
▁고지	-10.8988
▁가이	-10.8989
동으로	-10.8989
▁좌파	-10.899
▁방향을	-10.899
▁긴급	-10.899
▁찾는	-10.899
▁무관	-10.8992
▁유지하고	-10.8995
뤼	-10.8995
▁국민당	-10.8995
녹	-10.8996
▁작전을	-10.8997
▁동쪽으로는	-10.8998
up	-10.8998
▁때마다	-10.8999
되던	-10.9
▁유키	-10.9001
▁공식적인	-10.9001
port	-10.9005
▁무선	-10.9009
▁리듬	-10.901
보이	-10.9012
▁자료를	-10.9015
▁합쳐	-10.9017
▁세계를	-10.9017
▁산악	-10.9017
-15	-10.9019
▁남쪽으로는	-10.902
셋	-10.9021
▁시내버스	-10.9022
▁압박	-10.9026
▁포항	-10.9028
▁표지	-10.9032
700	-10.9035
▁고교	-10.9035
-16	-10.9035
조약	-10.9035
살이	-10.9036
생활을	-10.9038
파크	-10.9039
▁오버	-10.904
▁분포한다	-10.9043
▁활동에	-10.9044
▁여신	-10.9047
▁특성을	-10.905
▁문법	-10.905
▁입대	-10.9052
▁필름	-10.9052
▁이외에	-10.9055
▁가득	-10.9055
▁국군	-10.9055
ite	-10.9055
▁독재	-10.9056
킷	-10.9057
村	-10.9057
▁빨리	-10.906
▁사당	-10.906
▁가르	-10.9062
‘	-10.9067
▁하다가	-10.9068
-8	-10.9068
▁아이들	-10.9069
▁서식한다	-10.9069
自	-10.907
▁베타	-10.9071
▁별도로	-10.9071
▁코리아	-10.9072
▁커피	-10.9073
▁(1	-10.9074
보고	-10.9074
RE	-10.9076
景	-10.9078
▁마스터	-10.9079
관계를	-10.9081
▁운반	-10.9081
▁흥행	-10.9082
▁제목	-10.9083
ka	-10.9084
▁예루살렘	-10.9085
▁이명박	-10.9086
▁스펙트럼	-10.9087
合	-10.9087
▁물러나	-10.9087
▁52	-10.9088
▁묶	-10.9089
▁인간이	-10.9089
점으로	-10.9089
▁아사	-10.9094
▁곱	-10.9095
밤	-10.9097
ES	-10.9097
▁여기	-10.9097
▁것이고	-10.9098
▁기름	-10.9099
▁약칭	-10.91
▁경북	-10.9101
▁결정했다	-10.9103
▁심한	-10.9103
▁주장이	-10.9105
않	-10.9106
▁연설	-10.9107
▁180	-10.9113
▁늘어	-10.9113
경찰서	-10.9115
▁잃고	-10.9116
ME	-10.9117
크로	-10.9119
▁디자이너	-10.912
▁데리고	-10.9121
꾸	-10.9123
▁거두	-10.9124
▁캠프	-10.9124
▁전임	-10.9125
▁왕립	-10.9125
▁벗	-10.9127
▁쪽으로	-10.9129
▁동지	-10.9131
▁암컷	-10.9131
▁착수	-10.9132
-6	-10.9136
▁은퇴한	-10.9136
▁독립운동	-10.9138
시켰고	-10.9138
▁세조	-10.9138
De	-10.9142
▁귀환	-10.9142
▁우수한	-10.9142
▁멤버들	-10.9146
프라	-10.9146
▁지방에서	-10.9148
▁애니	-10.9148
▁차체	-10.9149
이었는데	-10.915
▁뽑	-10.9151
▁나갔다	-10.9151
▁자전거	-10.9152
▁생각을	-10.9153
▁1895	-10.9153
曹	-10.9154
▁크로스	-10.9156
▁도시를	-10.9159
때문에	-10.9165
▁펄	-10.9165
▁인사들	-10.9165
直	-10.9166
▁한계	-10.9167
▁무용	-10.9167
헤이	-10.9169
▁내용의	-10.9171
▁건의	-10.9171
▁결심	-10.9171
▁분노	-10.9172
▁안쪽	-10.9173
▁센트럴	-10.9175
▁노무현	-10.9179
▁Ar	-10.9179
▁러브	-10.9182
▁뤼	-10.9183
▁사적	-10.9184
▁클래스	-10.9184
▁도심	-10.9186
▁업데이트	-10.9187
▁아서	-10.9188
▁체육	-10.919
▁오디션	-10.9192
▁공전	-10.9193
▁크림	-10.9193
츠키	-10.9195
▁동맹을	-10.9198
AS	-10.9199
▁구간은	-10.9199
美	-10.92
ー	-10.92
▁사용하기	-10.9201
▁성공적으로	-10.9204
▁내놓	-10.9204
▁안드로이드	-10.9204
ame	-10.9205
역에서	-10.921
▁케이블	-10.921
▁시호는	-10.9211
▁모집	-10.9211
▁혁신	-10.9212
che	-10.9212
▁들어간	-10.9212
▁측은	-10.9214
▁김동	-10.922
▁언어로	-10.9223
스에서	-10.9223
▁어릴	-10.9224
Le	-10.9226
▁수익	-10.9227
▁일체	-10.9228
像	-10.9234
▁율	-10.9236
왔고	-10.9236
▁여인	-10.9236
▁남아있다	-10.9238
的	-10.9238
▁교구	-10.9241
▁버리고	-10.9245
▁표본	-10.9245
▁캄	-10.9246
▁성능	-10.9248
▁향년	-10.9248
vi	-10.9249
쯤	-10.925
시에서	-10.9251
축구	-10.9252
감이	-10.9254
▁칼리	-10.9255
▁필드	-10.9256
▁확인할	-10.9257
▁점수	-10.9258
▁형성된	-10.9258
▁스테이지	-10.9258
▁영화로	-10.9259
▁사료	-10.9259
▁사진을	-10.9259
▁커뮤니티	-10.9262
▁내륙	-10.9262
▁수컷	-10.9263
▁끈	-10.9264
▁있으면	-10.9266
▁모양을	-10.9269
▁요금	-10.9272
행동	-10.9273
▁일요일	-10.9273
▁츠	-10.9274
▁교전	-10.9275
▁기념물	-10.928
殿	-10.9281
대교	-10.9282
▁성벽	-10.9284
아나	-10.9284
▁MVP	-10.9285
▁사망자	-10.9286
▁북쪽으로는	-10.9287
▁발견했다	-10.9289
▁육성	-10.9299
장애	-10.9301
▁눈을	-10.9302
타는	-10.9303
▁발효	-10.9303
▁다니	-10.9304
▁서독	-10.9305
음이	-10.9306
▁기여했다	-10.9306
▁애플리케이션	-10.9306
▁퇴각	-10.9308
아키	-10.9308
▁유튜브	-10.931
파이	-10.9311
▁혈액	-10.9312
량의	-10.9313
소스	-10.9313
▁론	-10.9314
▁선거에	-10.9314
▁란	-10.9315
▁관련하여	-10.9318
so	-10.932
▁복지	-10.9321
▁자리에서	-10.9321
▁작품에	-10.9322
▁생기	-10.9323
▁49	-10.9323
뷰	-10.9325
▁간단한	-10.9325
祖	-10.9327
▁최근에	-10.9328
▁연주자	-10.9329
▁예전	-10.9329
▁54	-10.9332
ey	-10.9333
즉	-10.9336
▁시대에는	-10.9336
▁데이터베이스	-10.9336
▁무력	-10.9337
았던	-10.9337
▁중앙에	-10.9339
朝	-10.934
▁기록하고	-10.9341
▁경비	-10.9341
년대부터	-10.9341
▁불리기도	-10.9342
▁독자적인	-10.9343
분석	-10.9349
▁추대	-10.9349
▁활동한	-10.9351
▁관점에서	-10.9353
▁계수	-10.9354
▁요구하는	-10.9354
▁개칭	-10.9356
▁마쓰다이라	-10.9358
▁개최되었다	-10.9359
▁찾	-10.936
족이	-10.936
국으로	-10.9361
에르	-10.9366
▁높아	-10.9367
▁태자	-10.937
▁선생	-10.9371
▁낳았다	-10.9374
▁국립공원	-10.9376
▁중계	-10.9378
▁일본은	-10.9382
▁관객	-10.9382
▁대령	-10.9383
ice	-10.9384
▁되었으나	-10.9384
▁배정	-10.9388
▁이야기가	-10.939
푸스	-10.9391
▁셋	-10.9395
안에	-10.94
▁기단	-10.94
▁백성들	-10.9401
▁후계자	-10.9404
▁전통적으로	-10.9407
▁아베	-10.9408
-10	-10.9408
▁힘이	-10.9409
화로	-10.9412
▁등도	-10.9413
▁on	-10.9414
▁위기에	-10.9415
▁주자	-10.9417
▁통행	-10.9419
이지	-10.9419
SA	-10.942
적이	-10.9421
정은	-10.9421
자들	-10.9424
롭	-10.9426
▁예능	-10.9427
▁민간인	-10.9427
▁득표	-10.9428
▁소속되어	-10.9429
▁랭킹	-10.943
▁도메인	-10.9431
▁부처	-10.9432
▁데뷔전을	-10.9434
▁얼음	-10.9434
반도	-10.9439
아버지	-10.9442
▁막대한	-10.9443
▁놀이	-10.9444
▁많고	-10.9446
▁근거로	-10.9448
늘	-10.945
찌	-10.9452
▁포맷	-10.9453
나스	-10.9454
▁교차로	-10.9454
▁권고	-10.9455
▁찾아가	-10.9456
선언	-10.9457
▁야기	-10.9458
이었기	-10.9462
▁담당하는	-10.9463
▁동전	-10.9465
▁회원국	-10.9465
▁치렀다	-10.9465
▁그동안	-10.9466
▁능력이	-10.9467
AN	-10.9468
▁일으키	-10.947
▁각본가	-10.9478
基	-10.9478
▁혜성	-10.9479
분을	-10.948
▁후기의	-10.948
컴	-10.9483
ron	-10.9484
▁신임	-10.9487
見	-10.9487
▁대항	-10.949
▁개발을	-10.9491
▁다양체	-10.9491
▁Sh	-10.9492
웠	-10.9495
▁현대의	-10.9496
아시아	-10.9496
하기에	-10.9496
▁서경	-10.9497
하였	-10.9497
▁대안	-10.9499
▁국가에서	-10.9502
▁문화를	-10.9503
▁생각했다	-10.9504
▁신칸센	-10.9505
▁지어진	-10.9508
▁몰락	-10.9511
▁죽어	-10.9511
융	-10.9513
주의적	-10.9513
쳤다	-10.9513
▁바꾸었다	-10.9516
론의	-10.9517
▁별자리	-10.9517
源	-10.9518
▁홀로	-10.9519
▁스토	-10.952
▁번식	-10.952
▁존재를	-10.952
▁길이가	-10.952
아노	-10.952
레나	-10.9521
▁마친	-10.9522
크스	-10.9523
▁춘	-10.9525
▁경계를	-10.9525
▁가져	-10.9527
▁독립운동가	-10.9528
만은	-10.9537
▁인물이다	-10.9539
а	-10.9539
IA	-10.954
▁가질	-10.9541
▁저작	-10.9541
▁입구	-10.9541
ach	-10.9542
lin	-10.9542
▁믿	-10.9544
▁인물들	-10.9545
니카	-10.9545
0%	-10.9546
▁꺾고	-10.9547
▁플레	-10.9547
▁코어	-10.9548
▁좌석	-10.9549
▁얼마나	-10.9549
▁설이	-10.9551
▁서적	-10.9551
스톤	-10.9556
화와	-10.9556
▁SC	-10.9557
토르	-10.9557
목에	-10.956
▁급행	-10.9561
he	-10.9562
▁석방	-10.9562
▁경험을	-10.9562
겼다	-10.9563
▁역사적으로	-10.9566
▁출구	-10.9566
됐으며	-10.9567
▁자유주의	-10.9571
▁빛을	-10.9572
▁합계	-10.9573
▁1916	-10.9574
女	-10.9575
ight	-10.9575
▁개업	-10.9575
▁정신적	-10.9577
▁차이를	-10.9578
英	-10.9579
▁이익을	-10.9582
▁남극	-10.9582
▁락	-10.9585
▁메가	-10.9585
pi	-10.9586
▁협의	-10.9586
▁엔진을	-10.9587
ber	-10.9589
▁조명	-10.959
▁입지	-10.959
▁놓여	-10.9591
▁성종	-10.9591
홈런	-10.9592
수와	-10.9593
▁강릉	-10.9594
▁막을	-10.9595
▁가미	-10.9596
(5	-10.9603
병을	-10.9603
▁스타크래프트	-10.9606
▁문제점	-10.9606
▁끝났다	-10.9608
퍼스	-10.961
萬	-10.961
▁무료	-10.9612
▁출입구	-10.9613
▁DJ	-10.9613
한다면	-10.9614
위가	-10.9614
무역	-10.9614
CS	-10.9615
▁모순	-10.9616
▁관직	-10.9616
함대	-10.9616
수사	-10.9619
준다	-10.9619
▁소니	-10.9621
세기의	-10.9621
▁창원	-10.9623
▁56	-10.9626
▁납	-10.9632
▁활동이	-10.9633
科	-10.9634
▁이적했다	-10.9634
▁대회는	-10.9639
▁가끔	-10.9639
▁결승	-10.9641
▁발생하였다	-10.9641
▁프랑스와	-10.9641
▁할당	-10.9642
나카	-10.9642
▁멀티	-10.9643
▁AC	-10.9644
▁중요하다	-10.9645
▁피렌체	-10.9645
▁개찰구	-10.9646
▁항일	-10.9648
▁활약하였다	-10.9648
▁테오	-10.9649
▁브라이언	-10.9649
左	-10.9649
q	-10.9652
보는	-10.9652
▁상태이다	-10.9653
▁An	-10.9653
▁료	-10.9653
▁않도록	-10.9654
▁파르	-10.9654
▁정벌	-10.9654
▁※	-10.9656
기록	-10.9657
福	-10.9658
▁나이트	-10.9661
▁찾을	-10.9662
ec	-10.9668
씨가	-10.9669
브레	-10.9669
▁마산	-10.967
▁자유를	-10.9671
▁성립한다	-10.9671
▁남겨	-10.9674
금융	-10.9683
잘	-10.9685
宣	-10.9685
파는	-10.9687
▁호흡	-10.9687
어야	-10.9689
▁고베	-10.969
▁편곡	-10.969
문화재	-10.9691
▁FM	-10.9692
▁회의에서	-10.9695
득점	-10.9696
▁대로	-10.9697
▁제목으로	-10.9702
▁스페셜	-10.9703
자들에게	-10.9704
ea	-10.9704
▁열차는	-10.9707
▁브로	-10.9708
▁청와대	-10.9708
더라도	-10.9709
▁당국	-10.9711
▁조언	-10.9712
old	-10.9714
▁석탄	-10.9714
▁선교	-10.9716
▁받기	-10.9718
▁오케스트라	-10.972
▁원조	-10.9721
▁나라에서	-10.9722
▁랑	-10.9723
▁700	-10.9723
▁옮기	-10.9723
집합	-10.9724
▁프랑스에서	-10.9726
포드	-10.9727
▁인물이	-10.9728
▁To	-10.9728
▁충분한	-10.9728
▁맞게	-10.9728
▁물건	-10.9729
路	-10.9729
▁한쪽	-10.973
그램	-10.9731
▁싱글이다	-10.9731
▁나라를	-10.9733
▁적색	-10.9733
니다	-10.9733
▁중이던	-10.9734
▁되었다고	-10.9736
동과	-10.9736
▁이수	-10.9737
여단	-10.9739
BC	-10.974
▁말하고	-10.974
모델	-10.9742
▁느	-10.9742
▁얻는	-10.9743
▁졸업하였다	-10.9743
랍	-10.9744
▁계획은	-10.9747
▁분야의	-10.9748
▁값을	-10.9749
▁통로	-10.975
뜨	-10.9753
▁점은	-10.9756
制	-10.9756
▁직장	-10.9759
치고	-10.9759
쟁	-10.976
▁현존하는	-10.976
花	-10.9765
경기에서	-10.9765
▁대회를	-10.9766
파가	-10.9768
▁것인지	-10.9769
토시	-10.977
궤	-10.9771
▁주제로	-10.9771
▁철학자	-10.9771
▁국정	-10.9773
▁따위	-10.9775
군사	-10.9776
럽	-10.9777
적이다	-10.9777
▁모델이다	-10.9778
眞	-10.9778
▁작위	-10.9779
▁컨	-10.978
▁베이스볼	-10.978
▁한국에서는	-10.978
▁활약하고	-10.9781
줄기	-10.9786
우치	-10.9786
리그의	-10.9787
자동차	-10.9788
▁꺾	-10.9792
▁Se	-10.9792
▁가야	-10.9792
sc	-10.9793
▁오는	-10.9793
▁큐	-10.9797
▁앞면	-10.9798
▁방영되었다	-10.9803
빠	-10.9803
-0	-10.9805
차로	-10.9806
▁수비수	-10.9807
▁파트너	-10.9807
란트	-10.9811
▁디젤	-10.9812
▁미국에	-10.9812
▁보스	-10.9814
▁빗	-10.9815
▁이끌어	-10.9816
▁독일에서	-10.9816
▁하버드	-10.9816
▁통칭	-10.9817
있으며	-10.9822
▁수록곡	-10.9823
▁균	-10.9825
하니	-10.9827
▁목적은	-10.9827
▁측면에서	-10.9831
▁제휴	-10.9832
▁각국	-10.9835
형태	-10.9836
▁섬유	-10.9838
▁발견되는	-10.9839
투쟁	-10.984
특별	-10.9841
로서는	-10.9841
AL	-10.9842
▁1500	-10.9842
▁라틴	-10.9843
▁해임	-10.9843
대한민국	-10.9843
▁시청률	-10.9843
▁미야	-10.9844
▁아웃	-10.9847
▁광역	-10.9847
▁가지게	-10.9847
편의	-10.9851
▁국토	-10.9853
▁마이크로	-10.9854
▁되찾	-10.9854
貞	-10.9855
▁감독이다	-10.9858
이론	-10.9858
▁사면	-10.9859
號	-10.9859
따	-10.986
▁인터	-10.9861
▁서인	-10.9861
▁250	-10.9861
계열	-10.9861
▁까지	-10.9863
▁게재	-10.9863
버렸다	-10.9863
▁앨범은	-10.9865
▁건담	-10.9866
▁인원	-10.9868
사람	-10.987
▁지역과	-10.9872
▁양도	-10.9873
▁목조	-10.9874
▁후보에	-10.9875
▁계열의	-10.9877
星	-10.9877
▁부패	-10.9879
▁과일	-10.9879
▁편지를	-10.9882
▁뜨	-10.9882
▁한화	-10.9884
▁복제	-10.9886
▁코치로	-10.9886
▁혼자	-10.9887
조정	-10.9887
회에서	-10.9887
▁자세	-10.9889
명에	-10.989
▁성주	-10.989
▁대왕	-10.9891
▁맡았으며	-10.9896
▁앉	-10.9896
▁멤버로	-10.9896
▁시가	-10.9898
▁기록에	-10.9899
▁지목	-10.9899
▁미만	-10.9905
▁무사	-10.9906
▁실패했다	-10.9907
동을	-10.9907
보드	-10.9907
▁위치하며	-10.9909
▁수천	-10.9912
▁일본에서는	-10.9914
▁서서히	-10.9915
▁본격적인	-10.9915
▁노스	-10.9915
끼	-10.9916
▁조류	-10.9917
롯	-10.9917
▁다루고	-10.9918
▁굽	-10.9918
▁부통령	-10.9918
▁Bo	-10.9918
▁학부	-10.9919
▁l	-10.992
▁인텔	-10.992
▁동구	-10.9922
영은	-10.9928
_10	-10.9929
메르	-10.9929
▁행정부	-10.9929
자키	-10.993
공장	-10.993
SC	-10.9934
▁포함해	-10.9935
국사	-10.9936
▁("	-10.9936
▁군대가	-10.9937
ier	-10.9937
▁뮤	-10.9937
▁훈련을	-10.9939
formula	-10.9939
▁기타리스트	-10.9942
ix	-10.9942
▁조약을	-10.9944
▁공략	-10.9944
▁튀	-10.9945
▁주어졌다	-10.9945
덩	-10.9946
▁서쪽에	-10.9946
▁파동	-10.9947
▁결과가	-10.9949
▁빠	-10.9949
▁광주광역시	-10.995
▁정의할	-10.9952
▁계단	-10.9954
▁프로세스	-10.9956
슈타인	-10.9956
▁학위	-10.996
▁학교를	-10.9963
▁반격	-10.9964
▁원작으로	-10.9966
ov	-10.9968
동의	-10.9971
▁라운드	-10.9971
〉(	-10.9972
▁상대방	-10.9972
▁웃	-10.9973
쳤고	-10.9973
und	-10.9973
▁연고로	-10.9973
▁여덟	-10.9973
▁있음	-10.9973
▁판매량	-10.9974
동이	-10.9975
▁준우승	-10.9976
머스	-10.9976
▁꾀	-10.998
▁전진	-10.9981
▁발레	-10.9981
▁스톤	-10.9983
▁말은	-10.9985
▁말할	-10.9985
▁지역이다	-10.9987
▁링	-10.9987
▁누구	-10.9988
경영	-10.9988
sp	-10.9989
▁필라델피아	-10.9991
治	-10.9991
外	-10.9991
▁원자로	-10.9992
mer	-10.9993
▁심사	-10.9995
▁그것	-10.9997
전은	-10.9998
▁현상이	-10.9998
▁김용	-10.9999
▁당대	-10.9999
ich	-11
mi	-11.0003
▁보잉	-11.0005
PS	-11.0007
ure	-11.0008
▁물리적	-11.001
정당	-11.0011
▁가능하며	-11.0011
▁떠난	-11.0012
野	-11.0014
▁히데요시	-11.0014
미디어	-11.0015
▁오타	-11.0015
▁목록은	-11.0016
쯔	-11.0019
▁이르고	-11.002
▁외교관	-11.002
▁월드컵에서	-11.002
론적	-11.0021
▁손실	-11.0021
hPa	-11.0022
gu	-11.0025
▁사무	-11.0026
짜	-11.0026
▁싶어	-11.0027
▁특수한	-11.0029
▁미나미	-11.0032
▁냉	-11.0033
▁연애	-11.0035
▁당신	-11.0035
▁개념은	-11.0035
▁자격을	-11.0036
▁지표	-11.0036
▁전류	-11.0037
▁v	-11.0039
황후	-11.0039
화되어	-11.0043
▁인터페이스	-11.0044
▁메시지	-11.0044
▁이승	-11.0045
▁가즈	-11.0048
▁품질	-11.0048
▁53	-11.0049
엉	-11.005
▁좋아하는	-11.0053
▁곡으로	-11.0054
▁타이틀곡	-11.0055
맛	-11.0055
▁혐의	-11.0056
▁컴	-11.0056
유럽	-11.0056
▁추격	-11.0061
SI	-11.0061
지면	-11.0062
교수	-11.0063
▁지배를	-11.0063
▁비즈니스	-11.0065
▁사용해	-11.0068
▁보여주고	-11.0069
▁이사장	-11.007
my	-11.0071
▁끝이	-11.0072
▁진동	-11.0075
해지고	-11.0075
▁권한	-11.0076
▁일로	-11.0077
▁쳐	-11.0077
슬러	-11.0078
▁않았기	-11.008
작품	-11.0081
▁트랜스	-11.0081
▁그곳	-11.0081
▁의원이	-11.0082
▁시작했으며	-11.0083
낸다	-11.0083
▁발전에	-11.0083
산맥	-11.0085
부에서	-11.0087
▁호칭	-11.0087
▁고조	-11.009
▁검증	-11.0095
▁유언	-11.0096
다니	-11.0096
▁부위	-11.0099
▁역임	-11.0102
▁자유롭게	-11.0102
▁돌아갔다	-11.0104
▁펠	-11.0106
▁일찍이	-11.0106
▁찾기	-11.0107
▁My	-11.011
죠	-11.0111
물의	-11.0111
툰	-11.0112
▁파운드	-11.0113
▁따르는	-11.0113
군에서	-11.0114
▁가도	-11.0114
학부	-11.0114
치료	-11.0115
▁잘못된	-11.0117
▁예외	-11.0119
역이	-11.0119
▁가능하게	-11.012
▁군대는	-11.0121
▁거슬러	-11.0121
▁훌륭한	-11.0122
▁당한	-11.0122
▁미사	-11.0124
▁출판사	-11.0125
▁지니	-11.0126
▁천문학	-11.0129
▁의정부	-11.0129
▁대주교	-11.0131
▁뱀	-11.0132
웠다	-11.0133
그라	-11.0136
▁서브	-11.0137
▁두산	-11.0137
회가	-11.0137
▁개막	-11.0138
▁밴	-11.014
▁특급	-11.014
▁발견한	-11.0141
즈는	-11.0142
)」	-11.0144
▁목격	-11.0145
산은	-11.0145
ium	-11.0146
폴리스	-11.0146
▁네덜란드의	-11.0146
▁젖	-11.0148
▁일원으로	-11.0148
▁갤럭시	-11.0148
▁프로토콜	-11.0148
tra	-11.0149
▁질서	-11.0149
▁공로	-11.0152
학의	-11.0154
▁본인	-11.0155
너스	-11.0155
▁내내	-11.0158
보다도	-11.0159
▁이세	-11.0161
▁영어로	-11.0161
우가	-11.0162
▁연령	-11.0163
▁싫어	-11.0164
▁그중	-11.0165
▁드래프트	-11.0166
ler	-11.0167
▁미치는	-11.0169
▁연구하는	-11.017
▁응우옌	-11.0171
▁빠진	-11.0173
康	-11.0176
▁없으나	-11.0176
▁시작해	-11.0177
레이션	-11.0178
▁머리를	-11.018
▁Th	-11.0186
▁무대에	-11.0189
▁화려한	-11.0192
당이	-11.0195
정이	-11.0197
▁제국이	-11.0199
▁수업	-11.02
어스	-11.0201
▁수록된	-11.0202
령이	-11.0202
종합	-11.0203
傳	-11.0204
▁가와	-11.0205
▁시간대	-11.0207
해진다	-11.0209
▁상관	-11.021
▁짓	-11.0211
수도	-11.0213
▁무슬림	-11.0213
▁충족	-11.0214
▁성서	-11.0216
▁람	-11.0217
자이다	-11.0218
▁World	-11.022
▁완화	-11.0224
▁제도의	-11.0225
▁곡들	-11.0227
▁출시된	-11.0227
▁협약	-11.0228
▁중대	-11.023
음력	-11.0232
▁고통	-11.0233
▁에드	-11.0233
▁산타	-11.0234
▁기동	-11.0235
작용	-11.0235
▁구체적인	-11.0241
▁렌즈	-11.0241
res	-11.0242
▁발탁	-11.0244
룰	-11.0245
▁전투에	-11.0245
▁상인	-11.0246
▁뒤인	-11.0247
▁불가	-11.0249
졌는데	-11.0254
▁지지하는	-11.0255
音	-11.0255
▁자산	-11.0256
▁간부	-11.0257
▁연호	-11.026
짜리	-11.0261
▁정자	-11.0261
▁번뇌	-11.0262
하려면	-11.0262
▁이토	-11.0263
▁여기에서	-11.0263
▁도와	-11.0263
令	-11.0265
▁움직임	-11.0266
▁원나라	-11.0268
▁실업	-11.027
받는	-11.0271
▁파리에서	-11.0271
▁국적	-11.0272
▁CPU	-11.0275
▁김영삼	-11.0276
▁한동안	-11.0276
▁친구들	-11.0277
▁탈당	-11.0278
▁차남	-11.0279
산군	-11.0283
▁술탄	-11.0283
▁여론	-11.0285
▁아니며	-11.0285
▁적을	-11.0286
▁어두운	-11.0288
▁미스	-11.0292
▁결정을	-11.0293
▁무려	-11.0294
히메	-11.0295
▁석조	-11.0297
▁때때로	-11.0298
▁작고	-11.0298
▁윌슨	-11.03
▁결과는	-11.03
▁부흥	-11.0301
▁밤에	-11.0305
▁묻	-11.0306
간에	-11.031
드를	-11.0312
IN	-11.0316
▁마찰	-11.0317
▁기온은	-11.0319
자에	-11.0319
GA	-11.0322
▁렌	-11.0322
류의	-11.0323
짝	-11.0323
▁털이	-11.0324
▁궁정	-11.0324
미가	-11.0325
泰	-11.0326
国	-11.0326
▁주파수	-11.0326
▁소재로	-11.0327
▁성공회	-11.0327
화는	-11.0328
▁전두환	-11.0331
났다	-11.0331
▁교차	-11.0334
議	-11.0335
▁또다시	-11.0336
▁합작	-11.0337
기준	-11.0337
▁천안	-11.0338
▁동쪽에	-11.0339
▁프랑스는	-11.0339
▁던지	-11.034
▁의병	-11.0341
마쓰	-11.0342
코드	-11.0343
당을	-11.0349
▁천연	-11.035
高等學校	-11.035
▁울산광역시	-11.035
▁덴마크의	-11.035
▁개발된	-11.0355
▁윈	-11.0355
▁근접	-11.0356
▁승부	-11.0358
▁봉사	-11.0358
▁MC	-11.036
▁겸임	-11.0361
▁자바	-11.0362
▁관습	-11.0363
▁기술이	-11.0363
▁춤	-11.0364
▁착륙	-11.0366
▁동북	-11.0366
▁받기도	-11.0367
▁살던	-11.0368
ten	-11.0369
판은	-11.037
▁맡게	-11.0377
▁소속사	-11.0377
▁사무소	-11.0377
▁요소를	-11.0378
▁핑	-11.0379
상에서	-11.038
ON	-11.038
▁내는	-11.0381
▁관중	-11.0381
▁영감을	-11.0383
▁리메이크	-11.0383
▁바이올린	-11.0383
류를	-11.0385
▁사가	-11.0388
▁대책	-11.039
▁포도주	-11.039
▁성직자	-11.0391
쿄	-11.0391
전투	-11.0392
문이	-11.0397
▁유대	-11.0402
펀	-11.0403
▁조국	-11.0403
노동	-11.0404
첼	-11.0406
리크	-11.0406
▁방식의	-11.0406
주간	-11.0406
협정	-11.0407
▁지휘자	-11.0409
▁농도	-11.041
臣	-11.041
▁트럭	-11.041
▁전망	-11.0412
▁말하였다	-11.0415
▁주립	-11.0415
▁생명체	-11.0415
▁진출에	-11.0416
▁성씨	-11.0416
▁했다고	-11.0417
닥	-11.0418
▁전투가	-11.0419
▁성질을	-11.0422
졌지만	-11.0423
▁형태가	-11.0423
▁이처럼	-11.0423
▁진정	-11.0425
▁소금	-11.0425
▁알려지지	-11.0426
▁분지	-11.0427
	-11.043
▁있습니다	-11.0431
▁덧붙여	-11.0431
▁말한	-11.0432
、	-11.0432
▁창건	-11.0434
▁시스템은	-11.0434
▁이후부터	-11.0437
▁도미	-11.0439
▁도요	-11.0439
▁빠지	-11.044
ata	-11.0441
(2002	-11.0442
▁사용자가	-11.0442
단위	-11.0443
▁추모	-11.0444
▁피에르	-11.0448
파르	-11.0449
▁항공모함	-11.045
▁내부에	-11.045
▁본선의	-11.0451
▁전제	-11.0453
▁빌헬름	-11.0454
화한	-11.0455
▁목적을	-11.0457
TO	-11.0457
▁아니면	-11.0459
플레이	-11.0459
원에	-11.0459
▁토대로	-11.046
▁체제를	-11.046
▁세워졌다	-11.0462
현은	-11.0462
▁선수이자	-11.0462
▁특유의	-11.0464
▁블라	-11.0465
▁두루	-11.0467
▁시작하는	-11.0468
▁경선	-11.0469
▁승리로	-11.0474
▁생겼다	-11.0477
▁소행성	-11.0478
▁주지사	-11.048
▁디비전	-11.0484
▁늘어나	-11.0484
▁운행하는	-11.0485
RI	-11.0486
▁금성	-11.0487
거래	-11.0488
▁탕	-11.0489
▁거주하는	-11.049
▁몰아	-11.0491
작업	-11.0492
▁부르며	-11.0494
▁세로	-11.0495
▁콘텐츠	-11.0495
▁외계	-11.0496
양군	-11.0498
큰	-11.0498
▁역과	-11.0499
럭	-11.05
▁송나라	-11.05
▁까	-11.05
힘	-11.0502
역과	-11.0502
고속	-11.0503
▁구로	-11.0505
▁관통	-11.0506
▁동남아시아	-11.0507
▁김태	-11.0507
▁이내	-11.0511
▁결혼을	-11.0512
▁쌓아	-11.0512
▁풋볼	-11.0512
▁건너가	-11.0514
▁민주화	-11.0515
根	-11.0517
og	-11.0519
▁속도를	-11.0519
▁전례	-11.0519
파리	-11.0519
▁대신에	-11.052
▁우주선	-11.052
(2011	-11.0522
▁자문	-11.0523
▁안양	-11.0524
둘	-11.0526
▁젠	-11.0526
典	-11.0527
▁시점에서	-11.0529
▁밖의	-11.053
▁UN	-11.0531
나와	-11.0532
아리	-11.0533
모스	-11.0535
▁연구가	-11.0536
▁짓고	-11.0537
ase	-11.0538
▁강연	-11.0538
사항	-11.054
테이	-11.0542
플리	-11.0543
▁융합	-11.0543
▁사고로	-11.0544
▁생기는	-11.0544
▁맞추어	-11.0545
▁Pa	-11.0546
▁잉	-11.0546
▁일족	-11.0548
▁임명되어	-11.0549
(4	-11.0549
스탄	-11.0549
▁설비	-11.0551
臺	-11.0551
利	-11.0551
▁알레	-11.0551
▁제작자	-11.0552
▁서울에서	-11.0554
▁그러자	-11.0555
▁인력	-11.0557
玉	-11.056
▁유교	-11.0561
▁텐	-11.0562
▁실종	-11.0562
▁와중에	-11.0562
파를	-11.0563
신을	-11.0565
▁베네수엘라	-11.0565
▁청원	-11.0566
ng	-11.0566
▁정도가	-11.0567
▁방식은	-11.0567
▁SM	-11.0568
▁리투아니아	-11.0571
▁감지	-11.0572
▁정차	-11.0574
▁중심이	-11.0576
▁고가	-11.0577
▁점프	-11.0579
▁화살	-11.0579
▁관계로	-11.0581
▁여단	-11.0581
▁의견이	-11.0586
▁영문	-11.0586
▁저택	-11.0586
▁삼고	-11.0586
DS	-11.0587
스에	-11.0589
있고	-11.0591
▁초점을	-11.0592
▁뒤에는	-11.0592
ga	-11.0593
>,	-11.0593
▁훼손	-11.0594
▁언어를	-11.0595
▁경향	-11.0596
▁심리학	-11.0596
▁쿨	-11.0599
▁이슬람교	-11.0602
▁법학	-11.0604
Br	-11.0607
▁유일	-11.0608
▁신자	-11.0609
▁정부와	-11.0613
겼	-11.0614
ik	-11.0618
산면	-11.0621
春	-11.0623
壽	-11.0624
나오	-11.0624
:1	-11.0624
매치	-11.0625
▁부수	-11.0625
▁득표율	-11.0625
▁아들을	-11.0626
▁마케팅	-11.0626
▁시게	-11.0627
ger	-11.0627
觀	-11.0628
히코	-11.0629
▁민속	-11.063
▁출전했다	-11.0633
▁검은색	-11.0634
▁사용하며	-11.0638
▁옛날	-11.064
▁하나를	-11.0642
▁몸무게는	-11.0643
▁운동이	-11.0643
▁보스니아	-11.0644
헨	-11.0645
구로	-11.0645
▁각기	-11.0647
선조	-11.065
▁진군	-11.065
▁이것	-11.0654
▁82	-11.0657
sch	-11.0657
開	-11.0658
위안	-11.0658
▁테일러	-11.0658
▁엠	-11.0658
종교	-11.0658
▁삭	-11.0659
▁주와	-11.0659
미술	-11.0659
▁동독	-11.066
호에	-11.066
▁기상청	-11.0662
SP	-11.0666
운영	-11.0667
▁미술관	-11.0667
▁펼쳐	-11.0669
▁사령부	-11.0669
음에도	-11.067
▁속도로	-11.067
▁땅에	-11.067
▁섭정	-11.0675
▁극단	-11.0675
▁에스토니아	-11.0677
▁싸	-11.0678
▁규정하고	-11.0678
▁가구	-11.068
▁옹	-11.0685
▁피트	-11.0686
포를	-11.0686
▁해설	-11.0688
신학	-11.0688
▁자신에게	-11.069
▁스페인어	-11.069
▁뻗어	-11.0692
寶	-11.0692
承	-11.0692
▁왕위를	-11.0693
▁쓰기	-11.0693
▁스카	-11.0695
▁°	-11.0698
하루	-11.0699
▁때로는	-11.07
▁고원	-11.07
▁노선은	-11.0701
▁습	-11.0702
▁pro	-11.0702
▁게임은	-11.0705
MC	-11.0705
▁프로그램은	-11.0706
▁이었다	-11.0707
태후	-11.0707
▁평행	-11.0708
▁채로	-11.0708
시까지	-11.0709
▁줄여서	-11.071
lan	-11.0711
▁리가	-11.0712
이면서	-11.0714
▁전부터	-11.0715
▁현급	-11.0716
▁끝나고	-11.0716
▁부른	-11.0716
늄	-11.0716
으므로	-11.0716
▁초창기	-11.0717
▁5000	-11.0717
▁생각된다	-11.0719
▁폭스	-11.072
▁기상	-11.072
▁근처의	-11.0723
▁스트리트	-11.0725
▁치세	-11.0726
▁라우	-11.0726
奉	-11.0726
▁아이템	-11.0727
였	-11.073
효과	-11.0731
▁달러를	-11.0732
▁왕으로	-11.0733
▁정찰	-11.0735
스파	-11.0736
▁급속	-11.0736
▁Do	-11.0737
▁타운	-11.0738
▁않았	-11.0738
빅	-11.0739
▁내부의	-11.0743
▁Man	-11.0745
▁사우디아라비아	-11.0746
別	-11.0746
▁전체의	-11.075
▁죽을	-11.075
▁역이	-11.075
반응	-11.0752
▁선언했다	-11.0752
▁목포	-11.0752
▁성공적인	-11.0753
▁3000	-11.0756
LS	-11.0756
▁No	-11.0756
▁밀리	-11.0758
▁효력	-11.0759
실로	-11.0759
▁지키	-11.076
▁캐스팅	-11.0761
카타	-11.0762
보르	-11.0763
주년을	-11.0765
▁생일	-11.0765
▁빼앗	-11.0765
▁분야에	-11.0768
▁유해	-11.0769
혔다	-11.0769
▁약한	-11.077
▁원래의	-11.077
벌레	-11.0772
▁임상	-11.0775
듯이	-11.0777
밴드	-11.0777
▁제작되었다	-11.0778
▁해군의	-11.078
▁정확하게	-11.0781
고종	-11.0781
▁거인	-11.0781
아과	-11.0781
티노	-11.0783
▁강경	-11.0784
amp	-11.0784
▁죽이고	-11.0785
조건	-11.0785
▁해주	-11.0787
▁보충	-11.0789
대전	-11.0791
불교	-11.0791
▁설립하였다	-11.0794
▁지수	-11.0795
▁남동부	-11.0796
▁사이드	-11.0797
복을	-11.0798
▁야간	-11.08
▁스파이	-11.0802
모를	-11.0803
▁바꾸어	-11.0805
▁세균	-11.0806
▁응답	-11.0806
경을	-11.0807
법인	-11.081
▁상당수	-11.081
mon	-11.0811
▁문화의	-11.0814
타니	-11.0814
應	-11.0815
BA	-11.082
호와	-11.082
▁르네상스	-11.082
니까	-11.0825
▁이전까지	-11.0825
pp	-11.0825
▁섭취	-11.0826
▁식사	-11.0826
▁이루었다	-11.0827
점은	-11.0828
▁역임한	-11.0828
동은	-11.083
▁조조	-11.083
▁분리되어	-11.083
▁서원	-11.0832
▁운동의	-11.0833
▁명예의	-11.0838
▁오디오	-11.0838
▁사사	-11.0839
▁고무	-11.0839
클레	-11.084
▁하인리히	-11.084
▁포수	-11.084
▁그림을	-11.0841
▁최소한	-11.0842
▁순천	-11.0844
▁레전드	-11.085
吳	-11.0855
▁마이너	-11.0855
하겠다는	-11.0856
▁못할	-11.0858
John	-11.0859
▁거점	-11.0859
앵	-11.086
증을	-11.086
族	-11.086
▁팽창	-11.0862
▁시를	-11.0865
사령관	-11.0866
▁정밀	-11.0868
▁아래로	-11.0869
▁아기	-11.0871
ana	-11.0871
▁지냈으며	-11.0872
▁시작된다	-11.0873
ens	-11.0874
▁상의	-11.0874
▁해적	-11.0874
▁세우	-11.0874
▁리버풀	-11.0876
▁코무네	-11.0876
▁규격	-11.0876
PA	-11.0877
▁토르	-11.0877
▁일으키는	-11.0877
▁툴	-11.0878
▁구장	-11.0879
▁이스트	-11.0881
▁세계에	-11.0881
▁긴장	-11.0887
무를	-11.0889
사관	-11.089
선에	-11.0891
▁인정받아	-11.0891
ou	-11.0892
▁버전은	-11.0894
▁건물이	-11.0894
▁동메달을	-11.0894
▁사신	-11.0895
▁전투는	-11.0895
▁군부	-11.0895
▁언제나	-11.0896
▁발현	-11.0897
▁도서	-11.0899
사무소	-11.0899
▁유니폼	-11.09
▁중시	-11.0901
클럽	-11.0902
▁기습	-11.0903
▁파트	-11.0903
▁마이크	-11.0903
▁삶의	-11.0905
▁멈추	-11.091
▁신전	-11.0911
▁미드필더	-11.0912
▁달린	-11.0912
노미야	-11.0913
▁기간에	-11.0915
▁잃은	-11.0916
▁모듈	-11.0916
▁써서	-11.0918
▁학교에서	-11.0919
▁진정한	-11.0919
▁페스티벌	-11.0923
▁플레이스테이션	-11.0925
딸	-11.0925
그레	-11.0926
▁얻고	-11.0928
▁유출	-11.0929
▁결론	-11.0929
▁IP	-11.093
▁특징은	-11.0932
조로	-11.0935
세에게	-11.0935
졌으나	-11.0935
▁낱말	-11.0935
▁암호	-11.0938
▁구조의	-11.0938
▁제국은	-11.0938
ser	-11.0939
▁묘지	-11.0941
▁중의원	-11.0941
AP	-11.0941
▁장안	-11.0942
▁우연히	-11.0942
되었	-11.0944
▁장성	-11.0944
ster	-11.0945
▁둘러싼	-11.0945
▁법령	-11.0946
▁편리	-11.0946
(12	-11.0947
▁저작권	-11.0949
번지	-11.095
▁조사를	-11.0951
▁콩고	-11.0952
▁김재	-11.0955
▁에디	-11.0956
▁성공한	-11.0956
語	-11.096
기획	-11.0962
드가	-11.0962
▁전장	-11.0963
▁의원은	-11.0964
▁꼽	-11.0964
▁침몰	-11.0966
니시	-11.0966
▁반박	-11.0967
▁발매했다	-11.0969
▁홍수	-11.0969
▁지각	-11.0971
▁지금도	-11.0971
▁대외	-11.0971
▁자유당	-11.0971
▁조기	-11.0972
▁탈환	-11.0972
▁토요일	-11.0972
면적	-11.0974
▁명사	-11.0975
▁원주	-11.0975
부작	-11.0975
▁다운로드	-11.0976
▁음반을	-11.0978
▁1894	-11.0979
▁국가를	-11.0979
패를	-11.098
재판	-11.0983
▁초상화	-11.0984
▁특이한	-11.0985
행성	-11.0985
았지만	-11.0987
▁멸	-11.0987
▁사상을	-11.0987
맞	-11.0988
▁취지	-11.0989
릭스	-11.0991
이어서	-11.0993
▁길고	-11.0996
▁폐위	-11.0997
TC	-11.0999
▁입단했다	-11.1001
겠다는	-11.1003
왕은	-11.1004
▁나섰다	-11.1006
▁엄마	-11.101
▁시대를	-11.1011
▁스파르타	-11.1011
▁바꿔	-11.1011
사고	-11.1011
▁형식을	-11.1012
▁정체	-11.1015
▁발전소	-11.1015
▁보내는	-11.1015
ake	-11.1018
▁회화	-11.1018
▁사실은	-11.1018
▁황해도	-11.1019
▁둘은	-11.1022
▁실험을	-11.1023
▁57	-11.1025
▁오염	-11.1027
AT	-11.1028
▁향한	-11.1028
▁세르	-11.1029
산을	-11.1029
oll	-11.1029
았으나	-11.103
▁히라	-11.1031
▁New	-11.1031
까지도	-11.1032
버트	-11.1033
▁존경	-11.1035
고등	-11.1037
▁진지	-11.1038
▁링크	-11.1041
實	-11.1041
▁건물로	-11.1042
▁에릭	-11.1047
▁스콧	-11.1047
▁우승에	-11.105
▁존중	-11.1051
▁스릴러	-11.1052
업을	-11.1052
▁사물	-11.1052
▁차례로	-11.1054
▁특이	-11.1054
▁진출하였다	-11.1056
▁특징이	-11.1056
렁	-11.1057
▁친일인명사전	-11.1057
▁용기	-11.1057
▁뉴욕에서	-11.1058
▁풀어	-11.106
▁북한의	-11.1069
▁강원	-11.1069
▁58	-11.107
GM	-11.107
▁갖	-11.1071
▁사거리	-11.1071
▁공자	-11.1071
설을	-11.1073
▁은메달을	-11.1073
▁라마	-11.1074
▁유성	-11.1076
▁부착	-11.1079
▁공채	-11.108
▁비례	-11.108
▁그렇지	-11.1081
▁자기장	-11.1082
▁각지	-11.1086
▁창원시	-11.1087
?"	-11.1087
▁텍스트	-11.1087
븐	-11.1087
▁조건으로	-11.1088
▁악마	-11.1089
▁고발	-11.1091
▁도덕	-11.1092
gen	-11.1092
▁김진	-11.1094
▁때도	-11.1094
책임	-11.1099
▁만화가	-11.11
▁닫	-11.1101
▁분배	-11.1102
▁몬트리올	-11.1103
戰	-11.1103
리노	-11.1103
▁건축가	-11.1108
후보	-11.1108
▁희극	-11.1109
겠다	-11.1111
▁전한다	-11.1114
▁신흥	-11.1115
적이며	-11.1115
~2	-11.1115
▁몰려	-11.1116
▁대처	-11.1116
▁종결	-11.1117
▁교외	-11.1117
▁떨어	-11.1118
▁도망	-11.1124
밭	-11.1125
▁성모	-11.1125
▁일기	-11.1126
▁팩	-11.1127
▁일어날	-11.1128
클로	-11.1129
았는데	-11.113
▁것보다	-11.1131
종을	-11.1132
▁중기의	-11.1132
▁오리	-11.1133
순위	-11.1134
▁후보를	-11.1136
▁제외하고는	-11.1137
▁미쓰	-11.1138
제작	-11.114
▁맞추	-11.1141
▁선교사	-11.1141
▁돌아오	-11.1142
룽	-11.1142
▁캠페인	-11.1144
▁북구	-11.1144
▁톱	-11.1144
▁성남	-11.1145
▁이론은	-11.1145
▁작품들	-11.1148
▁미얀마	-11.1149
▁새끼	-11.1151
▁북방	-11.1151
▁리버	-11.1152
▁본사	-11.1152
▁들어가는	-11.1154
▁시기의	-11.1155
▁→	-11.1158
노리	-11.1162
▁밑에	-11.1162
년대에는	-11.1164
▁사육	-11.1165
ern	-11.1166
분이	-11.1166
▁방식이	-11.1166
▁내외	-11.1167
▁일컫는	-11.1167
▁발생할	-11.1169
▁시나리오	-11.117
▁학생들이	-11.117
▁중추원	-11.1171
▁향을	-11.1171
재판소	-11.1171
▁도호쿠	-11.1172
▁폭격	-11.1172
▁시간은	-11.1173
무스	-11.1173
▁음원	-11.1173
문과	-11.1175
면을	-11.1177
SL	-11.1179
唐	-11.118
원숭이	-11.1181
▁상무	-11.1181
교를	-11.1182
드와	-11.1182
▁헤드	-11.1182
▁유력	-11.1183
▁정류장	-11.1184
▁분기	-11.1185
고리	-11.1186
내에	-11.1187
조치	-11.1187
▁남아있는	-11.119
같이	-11.1192
▁의미에서	-11.1194
▁넘어가	-11.1194
스트라	-11.1195
ts	-11.1196
http	-11.1197
플라	-11.1199
▁네이	-11.1199
▁입장에서	-11.1199
▁함유	-11.1199
▁쉬운	-11.12
켜	-11.1201
▁치러진	-11.1203
▁해병대	-11.1206
조각	-11.121
les	-11.1213
▁1890	-11.1214
▁마감	-11.1215
▁분류된다	-11.1215
공을	-11.1218
▁대폭	-11.122
▁소설가	-11.1223
쾌	-11.1224
자연	-11.1228
▁리그의	-11.1229
▁불편	-11.123
▁판결을	-11.123
계급	-11.1232
놓	-11.1232
▁맞지	-11.1232
주년	-11.1233
엠	-11.1235
▁생각한다	-11.1235
갔	-11.1235
ob	-11.1238
▁사이에는	-11.1239
끼리	-11.1242
▁들어온	-11.1243
▁전라도	-11.1243
▁수학자	-11.1244
▁레이저	-11.1246
▁무제	-11.1247
▁얘기	-11.1247
▁수신	-11.1248
▁110	-11.1249
▁맡았고	-11.1252
나르	-11.1252
▁재산을	-11.1254
투자	-11.1255
▁배틀	-11.1256
▁연인	-11.1257
으려	-11.1257
▁규	-11.1257
▁거짓	-11.1257
▁극복	-11.126
현상	-11.1261
▁일화	-11.1261
▁시설이	-11.1263
▁앙리	-11.1264
▁꽤	-11.1264
▁월간	-11.1264
▁구조는	-11.1265
▁Mar	-11.1266
야스	-11.1266
▁않는다는	-11.1266
▁밴드의	-11.1266
▁점이다	-11.1267
▁외곽	-11.1269
▁김해	-11.127
▁프로그램의	-11.1271
질을	-11.1272
保	-11.1273
po	-11.1273
계와	-11.1274
▁본명	-11.1274
▁식당	-11.1275
▁소실	-11.1277
▁며칠	-11.1278
▁먹이	-11.1282
▁사용을	-11.1283
▁세트	-11.1284
▁바라보	-11.1285
▁날짜	-11.129
ys	-11.1291
▁마르크스	-11.1293
▁라트비아	-11.1293
놀이	-11.1295
▁알라	-11.1296
▁구제	-11.1297
▁1902	-11.1298
로마	-11.1299
▁고양	-11.1299
▁둥근	-11.13
▁전함	-11.13
ave	-11.1301
ack	-11.1301
Ma	-11.1302
CD	-11.1302
▁이씨	-11.1303
신이	-11.1303
▁타카	-11.1304
▁보전	-11.1305
▁설립했다	-11.1306
RS	-11.1306
라디오	-11.1307
▁붙인	-11.1308
면에서	-11.1308
▁가면	-11.1308
느냐	-11.1308
▁자격	-11.1309
인민	-11.1312
방향	-11.1313
IP	-11.1314
▁일했다	-11.1315
▁소환	-11.1318
▁캄보디아	-11.132
▁무거운	-11.132
▁기종	-11.1322
요리	-11.1322
▁기록하여	-11.1323
▁앱	-11.1323
▁병역	-11.1326
▁노동당	-11.1326
▁득점을	-11.1326
의원	-11.1328
▁비정	-11.1332
▁거리가	-11.1332
▁말기에	-11.1332
파와	-11.1332
쟁이	-11.1333
▁부문에	-11.1333
▁보한다	-11.1333
▁하나님의	-11.1334
조가	-11.1335
ale	-11.1335
▁로고	-11.1339
▁하였는데	-11.134
ン	-11.134
효소	-11.1341
▁사토	-11.1342
▁둘레	-11.1342
▁결혼했다	-11.1343
▁김상	-11.1343
노부	-11.1343
후에	-11.1343
▁확인되었다	-11.1345
시기	-11.1345
머니	-11.1346
ox	-11.1346
度	-11.1346
*	-11.1354
尙	-11.1356
▁고려시대	-11.1357
▁종로구	-11.136
▁팔라	-11.136
▁시리즈에서	-11.1361
▁누르고	-11.1361
▁수행하는	-11.1364
현대	-11.1364
▁과정에	-11.1365
키스	-11.1365
▁72	-11.1365
▁학원	-11.1366
://	-11.1367
▁끼	-11.1368
~5	-11.1369
▁자율	-11.137
▁벼슬	-11.137
▁화제가	-11.137
▁상징하는	-11.1371
良	-11.1372
▁황제가	-11.1372
▁부르고	-11.1373
tal	-11.1373
공단	-11.1375
▁일행	-11.1375
▁일부로	-11.1375
▁형식의	-11.1375
조합	-11.1376
▁교장	-11.1376
냥	-11.1376
▁고민	-11.1376
▁출전해	-11.1376
▁우루과이	-11.1377
『	-11.1377
▁전하	-11.1377
▁노력을	-11.1377
여객	-11.1379
FM	-11.1379
▁드림	-11.1379
▁등지에서	-11.138
▁불가능하다	-11.1381
▁마스	-11.1381
▁주에서	-11.1381
▁비서	-11.1381
▁1898	-11.1382
▁출연한	-11.1383
▁문양	-11.1383
▁이틀	-11.1384
▁스크린	-11.1385
5,000	-11.1385
▁두어	-11.1385
▁번영	-11.1386
▁형법	-11.1389
▁소지	-11.139
▁지점에	-11.1391
▁공인	-11.1391
▁변동	-11.1392
▁부정적인	-11.1395
▁죄를	-11.1397
▁사용될	-11.1398
ile	-11.1398
▁이른	-11.1401
▁건물을	-11.1402
▁플로리다	-11.1402
정리	-11.1402
▁네이버	-11.1403
벳	-11.1403
▁에이스	-11.1403
▁이원	-11.1405
▁백성	-11.1406
주고	-11.1407
듬	-11.1407
구와	-11.1409
협력	-11.141
▁식민	-11.1411
(7	-11.1413
▁차지한	-11.1414
▁정책에	-11.1415
▁각본을	-11.1415
▁육지	-11.1416
▁시모	-11.1417
야만	-11.1418
치의	-11.1418
▁뜻의	-11.1418
▁kg	-11.142
▁움직이는	-11.1421
▁보여주었다	-11.1422
▁북부에	-11.1424
▁분데스리가	-11.1426
(2010	-11.1426
▁든	-11.1426
cc	-11.143
▁손가락	-11.1433
▁집으로	-11.1433
역은	-11.1434
▁제주특별자치도	-11.1435
▁넣었다	-11.144
▁걱정	-11.144
▁회사는	-11.1441
▁이미지를	-11.1442
문서	-11.1443
▁꼭	-11.1443
기사	-11.1444
▁과정은	-11.1444
▁입체	-11.1446
▁병행	-11.1446
ence	-11.1446
▁영역을	-11.1447
▁중국과	-11.1448
▁배웠다	-11.1448
▁힘들	-11.145
ish	-11.1451
在	-11.1451
▁프랭크	-11.1451
→	-11.1452
▁치료를	-11.1454
▁한나라	-11.1454
▁에우	-11.1456
▁노동자들	-11.1456
▁크리스마스	-11.1457
▁링컨	-11.1457
치아	-11.1458
▁허브	-11.1459
▁88	-11.1462
▁붙잡	-11.1463
화에	-11.1463
▁기록된	-11.1465
신의	-11.1466
▁랜	-11.1469
LA	-11.147
▁파생	-11.147
▁레논	-11.1471
▁길게	-11.1471
▁안보	-11.1472
▁단종	-11.1472
▁신라의	-11.1474
▁University	-11.1475
▁빛의	-11.1477
▁아이슬란드	-11.1477
賢	-11.1477
업자	-11.1478
▁계절	-11.1479
▁환상	-11.1481
종은	-11.1482
▁라이선스	-11.1483
▁친정	-11.1484
무기	-11.1485
관에	-11.1486
무장	-11.1487
곡을	-11.1488
▁차기	-11.1489
▁크라	-11.149
▁총괄	-11.1492
▁메트로	-11.1492
浦	-11.1493
▁슬로바키아	-11.1493
▁만났다	-11.1494
▁좌절	-11.1494
▁동래	-11.1494
▁북위	-11.1494
▁포드	-11.1495
▁집계	-11.1497
▁꼬	-11.1497
智	-11.1499
▁도움으로	-11.1499
▁노란색	-11.1501
▁국무총리	-11.1504
여서	-11.1506
▁선종	-11.1506
▁의사를	-11.1506
▁도주	-11.1509
▁다케	-11.151
"("	-11.151
▁정부에서	-11.151
▁메달	-11.1511
▁수평	-11.1512
로드	-11.1513
스카야	-11.1513
▁연구는	-11.1513
▁판정	-11.1514
인들에게	-11.1514
▁부문에서	-11.1514
身	-11.1515
소는	-11.1515
▁출산	-11.1517
▁싶다	-11.1517
CO	-11.1518
▁골프	-11.152
▁인재	-11.152
▁속도가	-11.1522
▁듯한	-11.1523
▁배신	-11.1523
월드	-11.1524
▁등이다	-11.1526
▁표명	-11.1527
끝	-11.1527
만한	-11.1528
▁시로	-11.1528
행사	-11.1528
▁실려	-11.153
▁연속으로	-11.1531
▁아니지만	-11.1533
▁모방	-11.1535
▁우리의	-11.1535
원과	-11.1536
▁탓에	-11.1536
▁카이사르	-11.1536
▁윌리엄스	-11.1539
▁사용이	-11.1541
▁광범위한	-11.1541
코는	-11.1543
(8	-11.1544
위는	-11.1545
단지	-11.1547
▁상부	-11.1547
Jo	-11.1547
CA	-11.1548
▁포스트	-11.1548
▁엘리베이터	-11.1548
료를	-11.1549
▁속성	-11.155
▁일제강점기	-11.1552
申	-11.1552
▁않았으나	-11.1553
▁도착한	-11.1553
▁식으로	-11.1554
▁모자	-11.1554
▁금강	-11.1554
▁있다면	-11.1557
ies	-11.1557
▁정말	-11.1559
▁소총	-11.1559
▁아크	-11.156
~3	-11.156
▁휴식	-11.156
▁담배	-11.1561
▁소속이다	-11.1562
▁승무원	-11.1563
글리	-11.1568
yl	-11.1571
▁하부	-11.1572
▁남한	-11.1574
사리	-11.1574
▁후보자	-11.1575
혔	-11.1575
▁본사는	-11.1576
▁일본과	-11.1577
▁삼국	-11.158
▁구조로	-11.158
▁막아	-11.1583
▁인정하지	-11.1584
т	-11.1584
作	-11.1584
▁오늘	-11.1585
계로	-11.1586
크의	-11.1587
▁다중	-11.159
ire	-11.159
시절	-11.1592
eg	-11.1592
▁받았으나	-11.1592
▁디스플레이	-11.1595
▁사다	-11.1597
▁입성	-11.1598
▁띄	-11.1599
▁지어졌다	-11.1599
▁160	-11.1599
▁우정	-11.16
▁생태	-11.16
▁탐지	-11.1601
▁자신과	-11.1602
안타	-11.1602
▁인터뷰	-11.1602
▁일반화	-11.1602
▁극히	-11.1603
산의	-11.1604
브르	-11.1605
평화	-11.1605
년동안	-11.1606
▁130	-11.1608
▁본질	-11.1608
▁거론	-11.1609
▁호세	-11.161
▁트럼프	-11.1611
투표	-11.1612
▁즈음	-11.1614
▁칼라	-11.1614
▁패전	-11.1615
▁영남	-11.1615
▁쓰였다	-11.1615
PC	-11.1618
타가	-11.1621
▁비슷하게	-11.1622
省	-11.1622
팬	-11.1625
진흥	-11.1625
▁블루스	-11.1627
說	-11.1627
▁전쟁으로	-11.1628
▁열고	-11.1628
~6	-11.1631
▁지명을	-11.1632
▁반경	-11.1632
!"	-11.1632
▁나타낼	-11.1633
▁다음해	-11.1634
iz	-11.1638
▁자랑	-11.1638
▁후한	-11.1639
▁위협을	-11.164
▁끝까지	-11.1641
▁중심기압	-11.1643
▁지류	-11.1644
▁중장	-11.1647
▁끝나	-11.1647
리언	-11.1647
▁소유하고	-11.1649
▁피난	-11.1649
카리	-11.165
▁부분적으로	-11.165
▁이곳은	-11.1653
▁참여하여	-11.1653
▁중국인	-11.1653
ko	-11.1654
▁1899	-11.1656
▁아이를	-11.1657
▁쓰이고	-11.1657
▁보일	-11.1658
▁산다	-11.1658
▁무신	-11.1659
▁배구	-11.1661
▁섬을	-11.1662
였다고	-11.1665
결과	-11.1666
강전	-11.1668
▁시절부터	-11.1669
▁체계를	-11.1669
▁대원	-11.167
▁사로잡	-11.167
▁KT	-11.1673
▁적의	-11.1676
形	-11.1676
▁방패	-11.1676
▁위장	-11.1677
fe	-11.1681
우주	-11.1681
▁만나게	-11.1682
▁꿈을	-11.1683
산화	-11.1684
詩	-11.1687
言	-11.1687
▁아버지와	-11.1688
▁밟	-11.1688
▁con	-11.1689
GB	-11.169
▁노인	-11.1691
시부터	-11.1692
망을	-11.1695
슨은	-11.1696
놈	-11.1697
바이러스	-11.1697
▁아벨	-11.1697
▁일식	-11.1698
▁중심의	-11.17
▁향후	-11.1703
▁키프로스	-11.1703
色	-11.1703
플로	-11.1704
▁식별	-11.1705
ism	-11.1706
▁언론인	-11.1707
▁물에	-11.1707
▁수렴	-11.1708
修	-11.1708
▁협조	-11.1709
▁테니스	-11.171
하의	-11.1711
▁새누리당	-11.1714
▁과학자	-11.1717
▁무산	-11.1717
out	-11.1717
▁김수	-11.1718
▁역설	-11.1718
▁가속	-11.1719
▁지나치게	-11.1719
산리	-11.172
▁꼴	-11.1721
▁공사가	-11.1724
▁첨가	-11.1725
▁전념	-11.1725
▁사쿠라	-11.1726
á	-11.1727
았	-11.1728
▁Lo	-11.1729
▁싸우	-11.1729
▁부재	-11.173
yn	-11.1731
▁신비	-11.1731
AM	-11.1732
▁1901	-11.1732
나갔다	-11.1732
금지	-11.1735
▁모터	-11.1735
▁용병	-11.1735
▁작위를	-11.1737
EN	-11.1737
▁시칠리아	-11.1741
錄	-11.1741
▁언제	-11.1742
▁성공하였다	-11.1745
▁동명의	-11.1745
형제	-11.1746
▁유네스코	-11.1746
▁조금씩	-11.1748
▁가리	-11.1749
▁엑스	-11.1749
▁그룹의	-11.175
▁마쳤다	-11.1751
▁흔적	-11.1752
톱	-11.1753
버린	-11.1756
▁추정되는	-11.1756
敬	-11.1757
등에	-11.1758
법과	-11.176
▁장사	-11.1766
▁주장하고	-11.1766
▁내린	-11.1767
있던	-11.1768
▁달의	-11.1769
▁정부로부터	-11.1769
▁새겨져	-11.1769
▁벌인	-11.177
▁되었지만	-11.177
▁야생	-11.1772
▁케네디	-11.1774
▁원고	-11.1774
▁주거	-11.1777
▁하락	-11.1777
▁다양	-11.1777
▁섭	-11.1778
▁되었을	-11.1779
먼트	-11.1782
넘	-11.1783
▁IT	-11.1784
어진	-11.1784
▁재능	-11.1784
▁편입되었다	-11.1786
▁위임	-11.1786
ore	-11.1787
DI	-11.1788
권과	-11.1788
▁수장	-11.1794
▁포켓몬	-11.1794
틀리	-11.1795
▁시작되어	-11.1796
공무원	-11.1796
▁밝힌	-11.1796
▁버튼	-11.1798
클라	-11.1798
~)	-11.1799
▁조문이다	-11.1799
쿨	-11.18
▁관리하고	-11.1801
▁십자가	-11.1803
▁방침	-11.1804
▁컬러	-11.1806
RO	-11.1806
▁토니	-11.1806
▁용량	-11.1808
▁휴전	-11.1808
러시아	-11.1809
▁일시적으로	-11.181
▁늦	-11.1811
▁신중	-11.1811
位	-11.1812
웨어	-11.1813
▁남부에	-11.1813
실점	-11.1814
▁교황청	-11.1814
▁시상식	-11.1818
치기	-11.1818
▁급격히	-11.1819
▁형태는	-11.1819
▁포격	-11.1823
act	-11.1825
▁객체	-11.1826
▁장편	-11.1826
▁의뢰	-11.1827
章	-11.1829
▁섬에서	-11.1829
▁드라이브	-11.1829
▁소닉	-11.183
▁현의	-11.1831
족은	-11.1833
▁금액	-11.1833
▁발해	-11.1834
▁횡	-11.1834
ust	-11.1837
▁미터	-11.1839
▁여기에는	-11.1839
▁베토벤	-11.1839
▁남인	-11.1841
▁대포	-11.1845
(2006	-11.1846
▁기수	-11.1848
▁평원	-11.1848
▁활발한	-11.1848
An	-11.1849
▁속으로	-11.185
▁퍼시픽	-11.185
空	-11.1851
문은	-11.1851
▁둘러싸고	-11.1851
▁격퇴	-11.1852
▁어디	-11.1852
ek	-11.1852
▁모른다	-11.1852
-9	-11.1855
▁암석	-11.1855
▁콘스탄티노폴리스	-11.1856
▁징계	-11.1857
▁스피	-11.1857
▁닐	-11.1857
▁활약한	-11.1858
歌	-11.1862
老	-11.1862
▁달러의	-11.1862
으로서는	-11.1863
▁거행	-11.1865
▁비오	-11.1866
▁오스	-11.1867
▁시기는	-11.1867
梁	-11.1867
▁현종	-11.1868
보도	-11.1871
▁지속적인	-11.1872
▁평소	-11.1872
▁있는지	-11.1872
흔	-11.1874
▁동인	-11.1874
ost	-11.1874
▁차원에서	-11.1875
▁요구했다	-11.1878
블리	-11.1878
▁방법이다	-11.1878
캠퍼스	-11.1879
▁바가	-11.1879
▁전성기	-11.188
▁여행을	-11.1882
▁평일	-11.1882
▁!	-11.1883
憲	-11.1884
▁첼시	-11.1888
경기를	-11.1888
주의자들	-11.1889
▁지폐	-11.189
PL	-11.1892
▁후안	-11.1892
▁지방도	-11.1893
▁이반	-11.1893
▁담당하고	-11.1894
ess	-11.1894
右	-11.1895
베르트	-11.1895
▁시초	-11.1896
▁연관	-11.1898
▁디아	-11.1898
▁승리한	-11.1898
▁브루	-11.1899
▁프로리그	-11.1899
▁컬럼비아	-11.19
▁그로	-11.1901
▁보지	-11.1902
▁밑에서	-11.1902
▁st	-11.1902
현의	-11.1904
▁곡이	-11.1904
EA	-11.1906
▁중종	-11.1907
▁도리	-11.1908
▁주행	-11.1909
▁알렸다	-11.1911
레아	-11.1911
▁1,2	-11.1913
▁기리기	-11.1913
▁지사	-11.1914
▁우승하였다	-11.1916
▁포도	-11.1917
▁견제	-11.1919
업무	-11.1919
마스	-11.192
▁중재	-11.192
▁작곡한	-11.1922
▁진행된	-11.1922
土	-11.1922
lic	-11.1925
▁장점	-11.1926
▁입당	-11.1926
제와	-11.1927
▁옷을	-11.1927
▁우드	-11.1928
▁참가하고	-11.193
륙	-11.193
del	-11.1931
니우스	-11.1932
▁혹	-11.1932
濟	-11.1933
▁1903	-11.1934
레이트	-11.1935
▁먹고	-11.1935
▁강제로	-11.1937
▁곰	-11.1939
▁그레이	-11.194
▁부장	-11.194
▁제외하면	-11.1941
▁나오지	-11.1945
▁최상위	-11.1945
▁환영	-11.1948
▁mm	-11.195
▁진행된다	-11.1951
▁충주	-11.1952
ical	-11.1952
그리스	-11.1952
▁가수로	-11.1954
▁의거	-11.1955
津	-11.1956
▁필요성	-11.1957
▁단장	-11.1957
_11	-11.1958
▁로스앤젤레스에서	-11.1959
든지	-11.196
어져	-11.1961
▁스크	-11.1962
▁미국이	-11.1966
▁통근	-11.1966
천리	-11.1967
▁구릉	-11.1968
▁과거의	-11.1969
▁필립	-11.1972
▁MS	-11.1975
▁남구	-11.1975
▁호조	-11.1976
전문학교	-11.1976
▁주제가	-11.1976
▁웰	-11.1978
▁성우이다	-11.198
전으로	-11.1984
▁뛰어나	-11.1985
▁생각하고	-11.1986
▁NBA	-11.1987
▁이에야스	-11.1987
▁학파	-11.1988
▁공산	-11.1988
▁단위로	-11.1989
▁숭배	-11.199
▁인격	-11.1991
▁독일인	-11.1991
기독교	-11.1991
▁승강장은	-11.1992
cy	-11.1994
▁쏘	-11.1995
▁ISO	-11.1995
▁정렬	-11.1996
▁하거나	-11.1996
▁백색	-11.1999
▁일종으로	-11.1999
▁리비아	-11.1999
ear	-11.2
▁처분	-11.2001
▁페어	-11.2001
▁얻는다	-11.2005
노르	-11.2006
▁귀중한	-11.2006
▁아사히	-11.2006
팡	-11.2008
▁없었기	-11.2008
▁참고로	-11.2008
▁1.5	-11.2009
▁파업	-11.2011
멀	-11.2013
▁놓은	-11.2013
▁칩	-11.2014
▁인물을	-11.2016
양식	-11.2017
양성	-11.2018
▁김기	-11.2019
어도	-11.2023
이아	-11.2023
▁내고	-11.2024
▁배를	-11.2028
소송	-11.2031
min	-11.2031
▁있어서는	-11.2032
팀이	-11.2034
▁각본	-11.2034
ius	-11.2034
▁얀	-11.2034
▁지혜	-11.2035
▁실질적인	-11.2035
▁친척	-11.2036
아웃	-11.2036
▁환원	-11.2037
▁마약	-11.204
MHz	-11.2041
▁학명	-11.2042
▁공모	-11.2043
▁남부의	-11.2044
▁낼	-11.2046
▁cm	-11.2046
▁신규	-11.2047
재산	-11.2049
▁참가하는	-11.2049
▁풍경	-11.2049
▁동명	-11.205
기계	-11.2052
▁140	-11.2053
▁고립	-11.2054
▁국가대표	-11.2056
보살	-11.2059
▁겨	-11.2061
▁중간에	-11.2063
다면	-11.2063
▁지정된	-11.2064
▁소수의	-11.2064
▁63	-11.2065
▁갓	-11.2065
▁갈라	-11.2066
권으로	-11.2066
▁소문	-11.2069
픽	-11.2071
▁현금	-11.2071
▁일본으로	-11.2071
▁상장	-11.2072
▁센서	-11.2072
▁중순	-11.2072
▁모양이	-11.2073
▁다음이	-11.2073
력과	-11.2074
▁장애인	-11.2075
▁날아	-11.2075
▁서열	-11.2076
번대	-11.2076
▁드럼	-11.2077
통제	-11.2078
將	-11.2079
▁IBM	-11.208
▁일본이	-11.208
are	-11.2082
도리	-11.2082
▁개발되었다	-11.2084
▁눈이	-11.2084
▁업적	-11.2085
▁팀에	-11.2087
▁부도	-11.2088
▁병사들	-11.2088
▁한국에	-11.2089
▁환경에서	-11.2089
▁에스파냐	-11.209
▁에티오피아	-11.209
井	-11.209
하기를	-11.2092
▁68	-11.2092
▁삼각	-11.2092
▁쓰인	-11.2094
체육	-11.2094
▁글로	-11.2095
▁민족문제연구소	-11.2096
▁스쿨	-11.2098
▁카스	-11.2099
니와	-11.2101
연속	-11.2104
▁쓰지	-11.2106
▁모델을	-11.2106
▁구동	-11.2106
va	-11.2106
▁전에는	-11.2106
▁일어나자	-11.2106
▁공사를	-11.2108
▁휴스턴	-11.2108
자였던	-11.2109
▁앨범이다	-11.2111
시키며	-11.2111
▁몸에	-11.2112
等	-11.2113
▁지구에서	-11.2114
way	-11.2116
LE	-11.2116
산동	-11.2118
▁진출했다	-11.2119
▁황태자	-11.212
▁받았	-11.212
▁된다고	-11.2124
▁승점	-11.2125
▁곡이다	-11.2125
타나	-11.2128
▁신생	-11.2128
코가	-11.2131
▁버지니아	-11.2132
▁자아	-11.2132
▁전도	-11.2134
▁대답	-11.2134
왕국	-11.2134
▁멘	-11.2135
▁결혼식	-11.2138
역학	-11.2138
▁진짜	-11.2139
▁비유	-11.214
관의	-11.214
lu	-11.214
▁채권	-11.2144
니가	-11.2146
▁콘크리트	-11.2147
됨으로써	-11.2148
▁장갑	-11.215
(10	-11.215
▁친일파	-11.2153
▁나눌	-11.2154
▁투명	-11.2155
▁박해	-11.216
▁가난한	-11.2162
▁어휘	-11.2174
▁공헌	-11.2175
▁팔레스타인	-11.2175
線	-11.2175
▁풍부	-11.2176
Mar	-11.2176
족과	-11.2178
▁조건이	-11.2179
sk	-11.2179
▁할리우드	-11.2181
ST	-11.2183
▁중앙위원회	-11.2183
▁명령어	-11.2184
▁해변	-11.2184
지오	-11.2186
인들을	-11.2187
▁발족	-11.2188
깨	-11.2188
▁인민군	-11.2188
▁맺어	-11.2188
▁부과	-11.2189
▁마일	-11.2194
▁가마	-11.2194
계는	-11.2196
론에	-11.2196
▁지내	-11.2199
석의	-11.2201
▁변경하였다	-11.2201
▁하나이며	-11.2203
▁내려가	-11.2203
命	-11.2204
언어	-11.2204
▁생각하는	-11.2207
▁전쟁은	-11.2207
▁대조	-11.2207
▁일찍	-11.2208
▁진리	-11.2211
▁하더라도	-11.2212
▁노드	-11.2214
▁용어로	-11.2215
流	-11.2215
▁마루	-11.2217
▁이상으로	-11.2219
▁브라우저	-11.2221
히토	-11.2222
▁관해	-11.2223
▁다리를	-11.2227
▁잃었다	-11.2227
▁명제	-11.2227
▁오빠	-11.2228
▁독일과	-11.2228
▁있으면서	-11.223
▁해소	-11.223
▁용인	-11.2232
▁비판했다	-11.2232
▁아랍어	-11.2232
▁활동은	-11.2233
▁와이	-11.2233
계가	-11.2238
▁허리케인	-11.2238
▁우라늄	-11.2238
▁중기	-11.224
▁나이지리아	-11.2244
▁안산	-11.2246
▁콤	-11.2246
▁소통	-11.2247
▁하느님	-11.2248
스럽게	-11.2248
900	-11.2249
gi	-11.225
▁서식하는	-11.225
▁없애	-11.225
▁헤어	-11.2251
화의	-11.2251
▁장인	-11.2253
▁거느리고	-11.2253
▁부시	-11.2255
▁초반에	-11.2256
났	-11.2256
홈	-11.2259
▁존속	-11.2259
▁차관	-11.226
미를	-11.226
▁세자	-11.226
式	-11.2261
▁95	-11.2261
▁쌍둥이	-11.2261
론이	-11.2262
▁59	-11.2262
▁개혁을	-11.2264
▁실질적으로	-11.2264
▁양상	-11.2266
七	-11.2267
▁라이브러리	-11.2267
영어	-11.2267
▁보르	-11.2268
문의	-11.2269
▁등장했다	-11.2269
루아	-11.2271
▁펼쳤다	-11.2273
▁성격이	-11.2277
▁보완	-11.2278
▁마천루	-11.2278
모가	-11.2279
▁양측	-11.2279
▁준우승을	-11.228
▁노부나가	-11.2281
▁구조가	-11.2283
범죄	-11.2285
▁책봉	-11.2285
▁한성부	-11.2285
▁축적	-11.2285
곱	-11.2286
▁공의회	-11.2286
KBS	-11.2287
han	-11.2288
▁고백	-11.2289
▁안나	-11.2289
風	-11.229
▁시즌에는	-11.2292
▁칭호를	-11.2294
▁제사	-11.2295
▁자손	-11.2296
▁알제리	-11.2296
▁이슈	-11.2296
▁스피드	-11.2298
▁회계	-11.2298
▁Di	-11.2298
▁작센	-11.2299
▁전압	-11.23
▁사람과	-11.2301
▁예언	-11.2301
▁요소가	-11.2302
괄	-11.2303
렴	-11.2304
▁우세	-11.2304
햄	-11.2307
▁응원	-11.2307
派	-11.2312
▁후방	-11.2313
▁트라	-11.2313
미쓰	-11.2315
▁대도시	-11.2315
왔으며	-11.2316
폴리	-11.2318
드러	-11.2318
tro	-11.2318
▁r	-11.232
▁바치	-11.232
▁일도	-11.232
집을	-11.2321
▁국가로	-11.2322
▁근교	-11.233
弘	-11.233
▁돌리	-11.233
▁노래는	-11.2331
▁연결된	-11.2331
▁몰래	-11.2332
▁근처에서	-11.2333
▁긍정적인	-11.2334
▁활동하는	-11.2341
여자고등학교	-11.2342
▁동사	-11.2343
▁시장에서	-11.2345
▁겪었다	-11.2346
▁요크	-11.2346
▁감독과	-11.2347
▁하트	-11.2348
▁결정적인	-11.235
▁상태였다	-11.235
)』	-11.2351
이즈	-11.2352
▁취재	-11.2352
소에서	-11.2353
전차	-11.2357
▁시작하였고	-11.2357
FF	-11.2358
층은	-11.236
▁인형	-11.236
▁행적	-11.2361
선생	-11.2361
ook	-11.2362
▁경상도	-11.2366
▁계획에	-11.2366
▁강력	-11.2366
▁관념	-11.2366
▁비극	-11.2368
▁펴	-11.237
▁우편	-11.237
▁들어와	-11.237
▁간격	-11.2373
▁선수이며	-11.2375
ib	-11.2375
곽	-11.2375
▁미국에서는	-11.2375
▁되돌아	-11.2376
▁협주곡	-11.2376
▁Li	-11.2382
▁드래곤	-11.2382
▁마르코	-11.2383
책을	-11.2383
▁추출	-11.2385
▁존재하며	-11.2385
▁보니	-11.2385
▁휘하	-11.2385
천사	-11.2386
▁성숙	-11.2387
더니	-11.2387
▁과제	-11.2388
방위	-11.2389
티나	-11.2392
▁댐	-11.2392
▁니콜라	-11.2393
副	-11.2393
▁소관의	-11.2394
▁직전에	-11.2395
)〉	-11.2395
US	-11.2396
▁부대를	-11.2396
▁시절에는	-11.2396
▁하워드	-11.2396
▁조화	-11.2396
램	-11.2397
Mo	-11.2398
▁것에서	-11.2399
▁스튜어트	-11.24
▁자리잡고	-11.2403
▁교수가	-11.2403
▁받	-11.2406
▁놓았다	-11.2406
▁벌금	-11.2407
▁세월	-11.2407
▁지적했다	-11.2407
▁보좌	-11.2411
색을	-11.2412
▁존재했던	-11.2412
RT	-11.2414
▁테이블	-11.2414
▁미나	-11.2414
▁경험이	-11.2415
▁사라졌다	-11.2416
▁전체가	-11.2417
▁업적을	-11.2419
프로그램	-11.2419
▁담긴	-11.2422
▁혈통	-11.2422
▁윗	-11.2423
▁힘입어	-11.2423
▁통틀어	-11.2423
▁느껴	-11.2423
NE	-11.2425
져서	-11.2426
▁공신	-11.2426
▁찾아볼	-11.2426
▁영국은	-11.2427
짱	-11.2428
▁독일은	-11.2429
MP	-11.243
▁아예	-11.2431
▁주권	-11.2436
▁별의	-11.2436
tu	-11.2436
력은	-11.2438
즈카	-11.2439
공항	-11.2441
▁따르	-11.2442
▁마리오	-11.2444
▁밝기	-11.2444
▁읍	-11.2445
▁기요	-11.2448
▁호평을	-11.2448
▁대위	-11.2449
▁재선	-11.2449
▁역까지	-11.2452
▁파장	-11.2453
▁인접한	-11.2456
▁총회	-11.2457
▁비문	-11.2458
▁아종	-11.2459
해주는	-11.2459
▁제트	-11.2459
▁2,000	-11.2459
같	-11.246
▁서머	-11.2461
▁1884	-11.2462
퀘	-11.2462
▁왔	-11.2465
▁신설되었다	-11.2466
▁온천	-11.2466
이었다고	-11.2466
▁사이가	-11.2467
터널	-11.2468
▁장려	-11.2468
▁송시열	-11.247
▁대의원	-11.2472
▁대행	-11.2473
▁1897	-11.2474
▁생각해	-11.2474
▁엑	-11.2475
▁청주시	-11.2475
함은	-11.2475
▁임용	-11.2477
▁선수들이	-11.2478
▁자세한	-11.2478
tri	-11.2478
▁al	-11.2479
▁대신하여	-11.2479
놓고	-11.2481
▁나눠	-11.2481
ug	-11.2485
▁평야	-11.2488
질이	-11.2489
▁모델은	-11.2489
▁이름인	-11.249
▁샹	-11.2491
▁기점으로	-11.2492
공연	-11.2494
▁정도였다	-11.2496
▁이루	-11.2498
陳	-11.2499
▁손해	-11.25
▁RNA	-11.2501
험	-11.2501
▁그려진	-11.2501
▁대통령을	-11.2504
▁아마도	-11.2505
▁조리	-11.2505
▁레닌	-11.2508
▁III	-11.251
延	-11.2511
▁프랑수아	-11.2511
ft	-11.2512
▁구출	-11.2516
▁배터리	-11.2519
▁개발에	-11.2521
▁제품을	-11.2521
▁부족한	-11.2522
思	-11.2522
의학	-11.2523
스틱	-11.2524
▁기울	-11.2524
▁빌려	-11.2529
▁하나였다	-11.2531
▁행진	-11.2531
▁대한민국에	-11.2531
▁잔류	-11.2533
監	-11.2534
▁한국전쟁	-11.2534
▁시스템이	-11.2534
▁억압	-11.2534
▁수용소	-11.2535
▁선보였다	-11.2536
▁순수한	-11.2536
▁유사하다	-11.2537
▁자신들	-11.2537
▁위탁	-11.2538
▁보살	-11.2538
▁음식을	-11.2539
쉽	-11.2539
▁위키백과	-11.254
▁삼성전자	-11.2542
▁공로로	-11.2542
딜	-11.2543
▁높고	-11.2544
▁62	-11.2545
oo	-11.2545
秀	-11.2546
▁거기서	-11.2548
▁다루	-11.2549
▁특징으로	-11.255
▁거주하고	-11.2552
헌법	-11.2552
用	-11.2553
▁생산하는	-11.2554
▁차종	-11.2554
▁난다	-11.2558
▁남양	-11.2559
▁서정	-11.2561
▁me	-11.2562
▁성균관	-11.2562
▁Su	-11.2564
▁업그레이드	-11.2564
▁북동부	-11.2564
▁담겨	-11.2565
▁이긴	-11.2565
▁고려대학교	-11.2566
▁어워드	-11.2566
▁런던에서	-11.2568
▁구조물	-11.2572
▁뿔	-11.2572
▁둥	-11.2573
▁아비	-11.2574
시키지	-11.2575
▁고수	-11.2575
▁프랑	-11.2576
齋	-11.2576
▁헨	-11.2578
▁교수는	-11.2582
▁강남	-11.2583
▁유죄	-11.2583
▁이루어지고	-11.2583
dy	-11.2583
▁공간의	-11.2584
▁정무	-11.2588
자르	-11.2588
▁상류	-11.2589
타케	-11.2589
▁소설을	-11.2589
▁동료들	-11.2591
“	-11.2591
루는	-11.2591
▁뷰	-11.2593
溪	-11.2594
數	-11.2594
▁라이언	-11.2596
▁총독부	-11.2598
▁대피	-11.2599
▁보드	-11.2599
▁앉아	-11.2599
▁넣고	-11.2602
▁중단되었다	-11.2604
박사	-11.2604
ö	-11.2605
▁범인	-11.2606
렸으며	-11.2607
▁고쳐	-11.2609
▁의원들	-11.2611
▁사회에서	-11.2611
놓은	-11.2612
▁셸	-11.2613
▁의회는	-11.2614
▁개교	-11.2618
▁부모님	-11.2619
Ro	-11.262
▁군을	-11.2621
▁너비	-11.2622
多	-11.2623
▁말리	-11.2625
▁폭풍	-11.2625
▁공적	-11.2628
신경	-11.2628
▁태도를	-11.263
▁의상	-11.2631
▁설탕	-11.2632
▁PD	-11.2632
▁최후의	-11.2633
▁비가	-11.2633
내고	-11.2634
회관	-11.2636
▁차이점	-11.2636
▁승인을	-11.2636
▁회사를	-11.2639
▁태양계	-11.2639
문자	-11.264
결정	-11.264
▁가마쿠라	-11.2641
▁요동	-11.2642
▁팀인	-11.2647
샨	-11.2647
▁법을	-11.2647
ory	-11.2649
▁밀접한	-11.265
RA	-11.265
▁띤다	-11.2651
」(	-11.2651
▁쓰러	-11.2651
▁다룬다	-11.2651
▁만났	-11.2652
omys	-11.2652
워스	-11.2652
▁탐험	-11.2653
▁축하	-11.2654
▁생각할	-11.2654
▁왕위에	-11.2656
▁칭찬	-11.2656
▁영상을	-11.2657
▁좋	-11.2657
▁한양	-11.2658
▁그랑프리	-11.2659
▁오키나와	-11.2659
▁이래로	-11.266
▁소유자	-11.266
▁실용	-11.2661
▁동남	-11.2661
log	-11.2662
부리	-11.2663
보로	-11.2663
▁기어	-11.2665
▁붙은	-11.2665
▁신호를	-11.2665
임에도	-11.2666
륨	-11.2667
▁힘든	-11.2669
▁왜냐하면	-11.2671
▁섬으로	-11.2671
▁마음작용	-11.2671
▁사서	-11.2673
엇	-11.2674
▁아바	-11.2676
도어	-11.2678
ny	-11.2678
▁게이트	-11.268
▁근원	-11.268
▁밀도	-11.268
▁부근에	-11.268
▁냉각	-11.2681
▁그날	-11.2683
▁Sa	-11.2683
▁몰리	-11.2685
▁최후	-11.2685
▁다니엘	-11.2685
▁문화방송	-11.2687
▁인접	-11.2687
▁국내에서	-11.2688
▁헤르	-11.269
스로	-11.269
비용	-11.2691
▁험	-11.2692
샘	-11.2693
▁사건이다	-11.2694
▁뛰어	-11.2696
▁무소속	-11.2696
교도	-11.2698
▁학자들은	-11.2699
▁자체는	-11.2701
▁활약했다	-11.2702
약을	-11.2702
▁올스타전	-11.2703
▁사이클	-11.2706
▁직위	-11.2706
▁부대는	-11.2706
▁공세	-11.2707
郞	-11.2707
부산	-11.2708
▁난징	-11.2708
▁관리하는	-11.2709
▁일컫는다	-11.2709
▁스티브	-11.271
UN	-11.2711
▁법무부	-11.2711
▁슬로베니아	-11.2713
로우	-11.2713
▁장거리	-11.2714
▁메시	-11.2716
▁직접적으로	-11.2717
tor	-11.2717
▁미노	-11.2718
소의	-11.2719
▁연상	-11.272
▁참여하는	-11.2721
▁던져	-11.2722
▁카를로	-11.2723
함으로	-11.2724
▁실패하였다	-11.2725
▁기업인	-11.2726
▁드문	-11.2728
▁수습	-11.2728
▁호환	-11.2729
▁양키스	-11.2736
▁밀양	-11.2736
돔	-11.2736
▁정사	-11.2738
▁기록하는	-11.274
▁신용	-11.2741
▁주장한	-11.2742
가쿠	-11.2742
▁굉장히	-11.2743
▁턱	-11.2744
▁준비를	-11.2745
ei	-11.2747
너는	-11.2748
▁여름에	-11.2748
띠	-11.2748
턱	-11.2748
▁협박	-11.2752
ps	-11.2752
▁거리는	-11.2753
▁세계관	-11.2756
▁부리	-11.2757
▁시호를	-11.2757
▁강이	-11.2758
곡리	-11.2758
▁정해진	-11.2759
옌	-11.276
徐	-11.2761
▁배치되어	-11.2761
▁확신	-11.2761
▁메르	-11.2764
류는	-11.2765
▁동력	-11.2766
변화	-11.2766
▁도시철도	-11.2766
▁이식	-11.2766
-21	-11.2769
▁김경	-11.2769
▁각자	-11.277
▁권유	-11.2772
지에서	-11.2772
間	-11.2773
슬라	-11.2774
▁평정	-11.2774
NO	-11.2774
▁간단히	-11.2774
학자이다	-11.2775
▁가려	-11.2776
if	-11.2777
_12	-11.2778
▁월드컵에	-11.2778
▁버렸다	-11.2779
이라도	-11.278
▁톤	-11.278
▁발매하였다	-11.278
▁위기를	-11.2782
덤	-11.2782
▁DC	-11.2784
▁바오로	-11.2784
▁분비	-11.2785
모어	-11.2786
병으로	-11.2786
▁고르	-11.2786
▁이윤	-11.2787
미는	-11.2787
▁트위터	-11.2787
박스	-11.2787
패로	-11.2789
렵	-11.279
▁데뷔를	-11.2792
▁탐사선	-11.2792
당하고	-11.2794
▁조달	-11.2795
주의의	-11.2797
직에	-11.2798
▁체포되어	-11.2798
idae	-11.2799
▁모델이	-11.28
▁반도체	-11.28
▁얻지	-11.2801
▁프레임	-11.2801
▁그냥	-11.2802
앨범	-11.2802
▁매출	-11.2802
▁일명	-11.2803
▁주위에	-11.2803
▁타이베이	-11.2805
아는	-11.281
판에	-11.2813
싸	-11.2814
해도	-11.2814
▁증대	-11.2816
▁부분에서	-11.2816
▁그쳤다	-11.2818
태평양	-11.2819
▁경우를	-11.2819
▁구축함	-11.2821
▁교섭	-11.2821
교사	-11.2822
▁연합국	-11.2822
목을	-11.2824
▁자신도	-11.2824
처분	-11.2827
잇	-11.2828
▁프로그램이	-11.2829
▁불을	-11.283
▁Tr	-11.283
▁키스	-11.2831
▁등번호	-11.2831
▁사르	-11.2832
▁유래한	-11.2836
▁겹	-11.2837
▁첨	-11.2837
프스키	-11.2838
▁가동	-11.2838
▁이순신	-11.284
▁기생	-11.2841
속의	-11.2841
▁조직의	-11.2841
iss	-11.2843
앞	-11.2845
▁분기점	-11.2845
(11	-11.2846
▁누군가	-11.2846
▁초과	-11.2847
▁적대	-11.2848
▁그러던	-11.2851
토모	-11.2852
▁측근	-11.2854
다운	-11.2854
▁개념이	-11.2855
▁이어진다	-11.2855
▁게이지	-11.2857
▁포병	-11.2857
ja	-11.2857
▁재상	-11.2858
▁PS	-11.2858
▁도입되었다	-11.286
▁출전하였다	-11.286
▁극장판	-11.2861
▁사망하고	-11.2861
ID	-11.2863
제이	-11.2864
경기장	-11.2867
▁암시	-11.2869
▁제독	-11.2869
치카	-11.287
미야	-11.2871
빵	-11.2871
▁지정하여	-11.2871
▁문인	-11.2874
ling	-11.2877
▁자리잡	-11.2877
▁재현	-11.2879
sion	-11.2879
▁자동으로	-11.2879
▁승계	-11.2879
▁어원	-11.2881
생명	-11.2882
▁들어간다	-11.2883
▁나쁜	-11.2884
▁리그에	-11.2885
▁배우로	-11.2886
▁않았다고	-11.2887
보스	-11.2889
▁미상	-11.289
기념	-11.289
▁계열사	-11.2892
▁종으로	-11.2892
▁와인	-11.2893
▁아오	-11.2894
▁공천	-11.2896
TE	-11.2896
▁포스	-11.2896
▁세례	-11.2897
net	-11.2897
▁독립된	-11.2898
미아	-11.2898
군수	-11.2899
í	-11.2901
▁최대한	-11.2905
대왕	-11.2906
▁뜨거운	-11.2907
口	-11.2907
▁대표적	-11.2907
▁US	-11.2907
▁질량은	-11.2907
형식	-11.2911
▁매입	-11.2912
▁노조	-11.2912
▁문서는	-11.2913
▁스케이팅	-11.2913
▁퀴	-11.2914
▁시설을	-11.2915
▁몬테	-11.2916
▁것으로서	-11.2916
▁폐기	-11.2916
SE	-11.2917
▁비용을	-11.2918
II	-11.2919
節	-11.2919
▁발트	-11.2922
아들	-11.2923
▁시베리아	-11.2925
슬리	-11.2925
▁규모로	-11.2925
터리	-11.2927
빌리	-11.2927
▁필수	-11.2927
▁황실	-11.2928
보리	-11.2928
▁유아	-11.293
▁운하	-11.2932
▁루트	-11.2932
▁자연스럽게	-11.2933
▁저하	-11.2935
▁모친	-11.2935
▁중심지는	-11.2936
▁배후	-11.2939
력으로	-11.2939
수용	-11.2943
▁주사	-11.2943
▁선언하였다	-11.2943
▁블라디미르	-11.2944
클리	-11.2946
▁패스	-11.2951
▁AS	-11.2953
▁참여하고	-11.2953
▁올스타	-11.2954
▁불리게	-11.2954
학교를	-11.2954
▁것인데	-11.2954
▁Ho	-11.2954
▁투옥	-11.2957
▁리스트	-11.2957
▁사인	-11.2957
▁겉	-11.2959
▁강과	-11.2962
▁껍질	-11.2962
지역의	-11.2962
▁용어를	-11.2962
▁It	-11.2964
▁움직이	-11.2964
▁무렵에	-11.2966
기에는	-11.2966
ran	-11.2966
▁네오	-11.2967
고려	-11.2968
▁윤치호	-11.2968
▁군은	-11.297
▁딸을	-11.2974
▁뚫	-11.2976
▁61	-11.2976
▁다양하다	-11.2977
Con	-11.2977
col	-11.2979
ara	-11.2979
ru	-11.2979
▁보여주	-11.298
▁카자흐스탄	-11.2981
▁신조	-11.2981
▁화해	-11.2982
가수	-11.2983
▁기반의	-11.2983
▁운명	-11.2984
희는	-11.2984
▁싱글로	-11.2985
▁로열	-11.2986
▁첩	-11.2986
▁북서쪽	-11.2988
닉스	-11.299
hy	-11.299
▁결과에	-11.299
▁감정을	-11.299
▁과학기술	-11.2991
▁결코	-11.2992
▁전지	-11.2993
소녀	-11.2994
▁비로소	-11.2994
▁목재	-11.2995
바다	-11.2996
▁입원	-11.2996
NS	-11.2998
▁믿고	-11.2999
(2012	-11.3
포르	-11.3001
▁아제르바이잔	-11.3001
▁국소	-11.3003
▁10%	-11.3004
부르	-11.3004
▁허리	-11.3005
▁장치를	-11.3006
라르	-11.3008
▁논문을	-11.3009
▁관리자	-11.3011
za	-11.3011
▁부자	-11.3012
▁영화에	-11.3015
작은	-11.3016
▁개막전	-11.3016
▁코믹스	-11.3016
▁복귀하였다	-11.302
▁치즈	-11.3022
▁도로이다	-11.3023
▁아카데미상	-11.3025
▁종래	-11.3025
국에	-11.3027
▁승차	-11.3029
▁대상을	-11.303
▁오리콘	-11.3031
▁양주	-11.3031
임이	-11.3033
▁사리	-11.3034
▁방송사	-11.3035
석으로	-11.3035
받지	-11.3036
い	-11.3036
場	-11.3036
▁장미	-11.3037
율이	-11.3037
▁코트	-11.304
정권	-11.3041
rea	-11.3042
▁상점	-11.3042
이상	-11.3043
▁잊	-11.3043
RC	-11.3043
니크	-11.3044
▁이마	-11.3044
▁당일	-11.3046
▁최저	-11.3046
▁펼치	-11.3046
▁||	-11.3047
▁반해	-11.3048
侍	-11.3049
▁당의	-11.3049
리온	-11.305
▁수면	-11.3051
크라	-11.3051
▁실체	-11.3053
▁66	-11.3054
ial	-11.3056
▁지식을	-11.3056
▁실패로	-11.3057
주식회사	-11.3058
세르	-11.3059
▁무기를	-11.3059
▁칭호	-11.306
▁용도	-11.3061
지리	-11.3063
▁수술을	-11.3064
순환	-11.3065
▁책임자	-11.3065
▁당주	-11.3066
▁형사소송법	-11.3067
▁핵무기	-11.3068
▁즉각	-11.3069
▁진출을	-11.3069
식과	-11.3071
iv	-11.3072
▁적지	-11.3073
ous	-11.3073
▁문화체육관광부	-11.3074
▁날에	-11.3075
▁활발	-11.3077
타점	-11.3077
▁모르는	-11.3077
▁기능은	-11.3077
방을	-11.3079
▁조선로동당	-11.3079
▁짙은	-11.308
위원회는	-11.308
받을	-11.3082
꼬	-11.3084
▁진급	-11.3085
ED	-11.3085
▁유니	-11.3087
л	-11.3087
▁흔	-11.3088
▁지주	-11.3088
▁푸른	-11.3089
▁사회에	-11.3092
린은	-11.3093
▁열정	-11.3094
▁소속된	-11.3095
▁이후로는	-11.3095
사카	-11.3096
망이	-11.3097
▁He	-11.3098
▁돼지	-11.3098
▁제사를	-11.3099
▁For	-11.3099
▁유동	-11.3101
!!	-11.3103
▁엄격한	-11.3108
▁회수	-11.3109
▁중반에	-11.311
▁DS	-11.3111
任	-11.3111
▁먹이를	-11.3112
발을	-11.3117
▁여당	-11.3117
▁후일	-11.3117
카스	-11.3118
▁공백	-11.3118
센트	-11.3119
▁인체	-11.3119
▁야마토	-11.312
원에서	-11.312
▁중심부	-11.3121
▁동물의	-11.3121
▁살아남	-11.3123
Co	-11.3125
▁미션	-11.3126
▁일가	-11.3127
▁있었을	-11.3127
여명의	-11.3128
▁할머니	-11.3128
가르	-11.3129
▁뉴턴	-11.3129
ain	-11.3129
藏	-11.313
▁고체	-11.3131
ace	-11.3132
ever	-11.3133
▁영의정	-11.3135
▁사이버	-11.3138
키는	-11.3138
皇	-11.3141
츠는	-11.3142
▁세상에	-11.3143
▁포장	-11.3147
▁보인	-11.3148
▁시장에	-11.3148
▁만남	-11.3148
▁제압	-11.315
전의	-11.3151
▁비율	-11.3152
리즘	-11.3154
▁지부	-11.3154
▁희곡	-11.3155
▁적고	-11.3156
▁게시	-11.3157
den	-11.3158
▁튜	-11.3158
▁알려져있다	-11.3158
▁봉안	-11.3159
▁아래에서	-11.316
▁재혼	-11.3161
▁바티칸	-11.3161
저명한	-11.3162
▁가지며	-11.3162
▁성사	-11.3162
해온	-11.3165
▁시민권	-11.3169
대륙	-11.317
ness	-11.3171
▁피신	-11.3172
▁기록해	-11.3173
▁성취	-11.3174
▁미군정	-11.3174
▁공직	-11.3175
▁진공	-11.3175
▁나누	-11.3176
▁오해	-11.3176
▁성은	-11.3176
사전	-11.3177
▁공습	-11.3177
▁빨	-11.3177
▁철회	-11.3178
▁의식을	-11.3179
▁자사	-11.318
反	-11.318
▁않는다고	-11.3181
▁밴드는	-11.3181
▁자체를	-11.3183
▁가요	-11.3186
▁김현	-11.3186
▁무효	-11.3186
μ	-11.3186
對	-11.3186
라니	-11.3187
▁블랙홀	-11.3188
▁싱	-11.3188
▁국가에	-11.3188
▁봉쇄	-11.3189
▁승격되었다	-11.319
잡이	-11.3191
주에서	-11.3191
세종	-11.3194
▁오오	-11.3195
▁넣은	-11.3195
토프	-11.3199
▁사회학	-11.3199
甲	-11.3199
길이	-11.32
▁옌	-11.32
팽	-11.32
▁결성된	-11.32
▁색을	-11.32
▁상임	-11.3201
▁이름에서	-11.3201
▁출전한	-11.3202
천여	-11.3203
차량	-11.3204
▁죽였다	-11.3205
▁판본	-11.3206
▁동상	-11.3207
▁경우에도	-11.3211
▁조별리그	-11.3214
▁토성	-11.3215
▁트윈스	-11.3216
▁CF	-11.3216
루수	-11.3216
▁동아일보	-11.3219
▁정전	-11.3219
▁배수	-11.3221
태수	-11.3221
▁대학에	-11.3222
▁친선	-11.3222
▁대거	-11.3223
▁낸다	-11.3224
시게	-11.3224
▁횟수	-11.3224
예프	-11.3224
률이	-11.3225
▁구간을	-11.3226
됐	-11.3226
CI	-11.3227
▁베드로	-11.3227
나라의	-11.323
▁부천	-11.323
▁수령	-11.323
ā	-11.323
▁춘천	-11.323
▁고양시	-11.323
▁지고	-11.3231
▁그녀	-11.3231
▁교단	-11.3231
▁알바	-11.3233
▁간접	-11.3233
마일	-11.3235
▁탐구	-11.3235
▁내정	-11.3235
펑	-11.3235
▁상하	-11.3235
Ar	-11.3236
▁가깝다	-11.3237
楊	-11.3237
▁개종	-11.3238
▁서울대	-11.3239
란드	-11.324
개월간	-11.324
▁언니	-11.3241
상황	-11.3242
▁조선일보	-11.3242
▁왕복	-11.3242
▁1885	-11.3243
▁가짜	-11.3243
▁오프닝	-11.3244
.<	-11.3244
▁지구와	-11.3245
▁비난을	-11.3246
▁축출	-11.3248
許	-11.3249
▁통증	-11.325
▁계속되었다	-11.325
▁신념	-11.3251
▁85	-11.3253
▁금메달	-11.3255
▁띠고	-11.3255
玄	-11.3256
미나	-11.3259
쿠마	-11.3259
▁싱어송라이터	-11.326
▁아야	-11.326
▁일생	-11.3261
▁프로게이머	-11.3261
바나	-11.3261
▁모로코	-11.3262
▁풍자	-11.3262
▁데이비스	-11.3263
구간	-11.3266
▁지휘하는	-11.3266
▁의미의	-11.3267
▁바이오	-11.3268
志	-11.3269
강을	-11.3269
▁후궁	-11.327
▁형성한다	-11.3271
▁역의	-11.3271
▁경찰은	-11.3272
▁고령	-11.3272
▁도루	-11.3273
▁서식	-11.3274
▁어려워	-11.3275
랏	-11.3275
▁데스	-11.3276
▁아레나	-11.3277
▁정서	-11.328
갔으며	-11.328
▁근본	-11.3281
개미	-11.3281
물리학	-11.3281
▁얻	-11.3282
▁고치	-11.3282
▁천사	-11.3283
프가	-11.3284
실을	-11.3285
▁수도인	-11.3285
▁팀들	-11.3286
▁산란	-11.3287
▁획득한	-11.3287
▁이용한다	-11.3288
▁극동	-11.3289
▁포지션	-11.3289
아라	-11.3291
세트	-11.3293
▁컨셉	-11.3294
대구	-11.3294
▁않으나	-11.3297
바타	-11.3297
▁설명했다	-11.3297
▁선수를	-11.3297
론과	-11.3298
▁이르렀	-11.3299
▁타구	-11.3299
▁적분	-11.3299
▁루터	-11.33
▁낙선	-11.33
회장	-11.3302
▁전속	-11.3302
▁조용	-11.3303
▁막내	-11.3303
▁해명	-11.3304
단과	-11.3305
▁마하	-11.3305
라노	-11.3307
▁충남	-11.3307
▁오고	-11.3309
▁상해	-11.3309
케라톱스	-11.3313
達	-11.3313
▁승부차기	-11.3313
▁내부에서	-11.3313
▁헐	-11.3314
▁달성했다	-11.3314
▁스트레스	-11.3314
ank	-11.3315
▁2.0	-11.3316
▁일시	-11.3317
되었다가	-11.3318
▁그룹이다	-11.3318
▁옵션	-11.332
채널	-11.332
▁원산	-11.3321
테크	-11.3321
▁앤드	-11.3323
▁광해군	-11.3324
▁・	-11.3324
넓	-11.3325
목으로	-11.3325
▁이영	-11.3325
▁드물게	-11.3326
▁치안	-11.3328
▁개발자	-11.3329
하르트	-11.3329
▁170	-11.333
▁Com	-11.3331
례를	-11.3333
▁스마트	-11.3334
▁블로그	-11.3334
각형	-11.3334
▁착공	-11.3336
▁결정되었다	-11.3336
▁종류가	-11.3336
▁촉구	-11.3336
▁뒷면	-11.3337
▁외야수	-11.3339
헤드	-11.3339
▁만나는	-11.3341
청은	-11.3341
▁di	-11.3342
▁물질을	-11.3345
▁월요일	-11.3346
▁단계에서	-11.3347
▁분명히	-11.3348
▁머신	-11.3348
▁관할하는	-11.3349
▁사위	-11.335
▁연기를	-11.3352
▁고사	-11.3353
현이	-11.3353
▁김정일	-11.3354
▁무상	-11.3356
▁프랑크푸르트	-11.3358
▁커널	-11.3359
Pa	-11.3363
▁장관을	-11.3364
▁보석	-11.3365
▁제안을	-11.3366
영국	-11.3367
▁폭행	-11.3367
▁팀으로	-11.3367
▁북서부	-11.3368
▁오프	-11.3368
▁대학을	-11.3368
▁루시	-11.3369
곰	-11.3371
▁달한다	-11.3371
▁가져왔다	-11.3371
집행	-11.3374
▁따른다	-11.3375
▁야구장	-11.3375
몸	-11.3375
복지	-11.3376
올라	-11.3379
▁않음	-11.3379
테이션	-11.338
▁결함	-11.338
▁감행	-11.3382
朝鮮	-11.3383
▁밴드이다	-11.3384
▁캐시	-11.3385
DE	-11.3386
판매	-11.3387
▁채워	-11.3387
편으로	-11.3389
통합	-11.3389
춤	-11.339
▁중독	-11.339
FL	-11.339
세기부터	-11.3391
들인	-11.3391
해방	-11.3392
▁경기에서는	-11.3394
▁도시가	-11.3397
▁기업이다	-11.3397
▁바퀴	-11.3398
▁적합한	-11.3398
▁참모	-11.3399
▁키우	-11.3399
▁고소	-11.3401
▁행정동	-11.3402
▁일대에	-11.3404
▁관광객	-11.3404
▁살해당	-11.3405
▁향하는	-11.3405
▁백신	-11.3405
▁대표이사	-11.3406
▁보유한	-11.3406
▁세션	-11.3407
御	-11.3409
▁최악의	-11.3409
▁낮아	-11.341
▁말씀	-11.341
▁Go	-11.341
하임	-11.3411
▁학교에	-11.3411
▁나가사키	-11.3412
▁컬	-11.3412
▁과거에는	-11.3415
▁법무	-11.3415
▁경성부	-11.3416
▁회사가	-11.3419
마트	-11.3419
▁사용되지	-11.3419
▁SA	-11.3419
▁살리	-11.3421
▁알코올	-11.3422
▁물러났다	-11.3424
IM	-11.3424
▁예하	-11.3424
▁묘역	-11.3428
▁속하며	-11.3429
▁화장실	-11.3429
▁토착종	-11.343
▁적극적인	-11.3432
▁없어서	-11.3433
▁말기의	-11.3434
▁최근의	-11.3434
▁반지름	-11.3435
▁99	-11.3436
대군	-11.3436
층이	-11.3438
▁것인가	-11.344
깃	-11.3442
터는	-11.3443
▁날씨	-11.3443
▁천장	-11.3443
▁벼	-11.3443
방울	-11.3445
화되었다	-11.3446
▁부유한	-11.3447
▁Ca	-11.3447
대손	-11.3447
▁이루어지는	-11.3447
실에서	-11.3449
▁그레	-11.345
▁상상	-11.3453
▁유소년	-11.3454
▁비전	-11.3454
▁체코슬로바키아	-11.3454
▁담아	-11.3455
평군	-11.3457
(2014	-11.3458
▁이유를	-11.3458
▁움직임을	-11.3459
▁만세	-11.346
흑	-11.3461
▁비례대표	-11.3461
TP	-11.3462
▁결정된다	-11.3462
▁북한군	-11.3463
▁la	-11.3464
▁벨라루스	-11.3467
常	-11.3468
▁남동쪽	-11.3468
▁옹립	-11.3469
▁표면에	-11.347
▁아미	-11.3471
가며	-11.3472
nd	-11.3472
▁전인	-11.3473
▁조종사	-11.3473
설이	-11.3473
▁사고가	-11.3475
▁부분으로	-11.3475
▁초연	-11.3476
▁사회를	-11.3476
▁쇼와	-11.3477
(2009	-11.3479
車	-11.348
▁방송되었다	-11.3481
▁시선	-11.3481
▁국내외	-11.3482
▁느낌을	-11.3483
▁정치인으로	-11.3483
터스	-11.3483
▁방식이다	-11.3484
▁침투	-11.3484
▁시즌에서	-11.3485
재를	-11.3486
▁라오스	-11.3489
▁무성	-11.3489
▁답변	-11.349
▁중에서는	-11.3492
亭	-11.3493
▁아열대	-11.3493
出	-11.3493
▁수상한	-11.3494
▁따온	-11.3495
안이	-11.3496
없	-11.3497
▁연소	-11.3501
▁왜곡	-11.3501
▁쓰여	-11.3501
▁질문	-11.3506
▁의회의	-11.3507
무대	-11.3508
▁설명한다	-11.3508
▁시골	-11.3508
▁지능	-11.3509
ning	-11.3509
~4	-11.3509
못	-11.351
▁결혼하였다	-11.351
que	-11.3511
▁NC	-11.3514
냈고	-11.3515
▁We	-11.3516
▁주민들이	-11.3516
▁타이거즈	-11.3517
▁창업	-11.352
자본	-11.352
▁물자	-11.3522
eo	-11.3523
▁가신	-11.3523
특히	-11.3524
▁모두가	-11.3524
▁직결	-11.3524
▁강수량은	-11.3525
▁76	-11.3526
▁실망	-11.3527
line	-11.3528
▁규모는	-11.3528
▁산림	-11.3528
궤도	-11.3529
번을	-11.3529
▁추측된다	-11.3529
▁밀집	-11.3529
▁별명을	-11.353
▁물리학자	-11.3531
ise	-11.3531
▁혼동	-11.3533
명이었다	-11.3537
▁유수	-11.3537
▁서민	-11.3537
▁내용으로	-11.3538
▁적다	-11.354
▁확실히	-11.3541
gn	-11.3543
▁선수로서	-11.3544
께서	-11.3544
館	-11.3545
▁급제하여	-11.3547
▁자격으로	-11.3548
▁마야	-11.3549
▁과도	-11.355
▁딘	-11.3551
민의	-11.3553
▁충성	-11.3554
소득	-11.3554
▁많으며	-11.3555
▁우측	-11.3555
▁이어진	-11.3555
사실	-11.3556
頭	-11.3558
▁위험한	-11.356
▁젤	-11.3561
▁기록했고	-11.3561
▁정한	-11.3563
팩	-11.3565
▁장군이	-11.3566
니오	-11.3567
▁용인시	-11.3568
▁연도	-11.3568
▁팽	-11.357
▁바깥쪽	-11.3574
▁상표	-11.3575
▁불교의	-11.3576
네르	-11.3577
▁클리	-11.3577
▁관직을	-11.3577
▁경신	-11.3578
▁데뷔하였고	-11.3578
▁가죽	-11.3578
▁대가	-11.358
해지는	-11.3581
low	-11.3583
있었다	-11.3584
▁삿포로	-11.3584
▁대승	-11.3585
▁원인은	-11.3588
▁단식	-11.3588
▁아니라고	-11.3589
▁스파	-11.3591
▁$	-11.3591
신은	-11.3591
내에서	-11.3592
▁...	-11.3594
▁빨간색	-11.3594
▁가장자리	-11.3597
▁둘러	-11.3597
▁인정하고	-11.3598
▁가축	-11.3599
▁1880	-11.36
상으로는	-11.3601
▁아홉	-11.3601
▁폭동	-11.3601
강의	-11.3602
▁복장	-11.3602
▁진행되고	-11.3602
▁연세대학교	-11.3605
사지	-11.3605
▁구절	-11.3606
▁타원	-11.3606
▁아일랜드의	-11.3608
▁고장	-11.3609
▁훈장	-11.3609
▁요청을	-11.361
He	-11.3611
전에서는	-11.3612
▁줄무늬	-11.3612
▁용도로	-11.3613
▁욕	-11.3613
▁선정한	-11.3614
▁본인의	-11.3614
소에	-11.3615
▁주어진다	-11.3617
Cl	-11.3618
▁장례	-11.3618
su	-11.362
▁시가지	-11.362
팝	-11.362
▁역학	-11.3621
▁풍속	-11.3621
▁카우	-11.3622
▁희생자	-11.3622
▁작아	-11.3622
▁멜로디	-11.3623
▁대웅전	-11.3624
▁98	-11.3625
▁오렌지	-11.3625
▁샌	-11.3625
▁성명	-11.3626
▁50%	-11.3627
▁버전이	-11.3631
▁봉건	-11.3633
▁구할	-11.3634
ock	-11.3634
▁구분된다	-11.3634
▁이끈	-11.3635
명령	-11.3639
▁호출	-11.3639
노선	-11.3639
▁광물	-11.364
건축	-11.3641
학과를	-11.3641
_13	-11.3642
▁후임으로	-11.3642
심이	-11.3643
▁평균자책점	-11.3643
wa	-11.3644
안은	-11.3645
▁스스로를	-11.3645
▁정교	-11.3646
루타	-11.3646
▁시범	-11.3646
▁암호화	-11.3647
▁비평	-11.3648
▁해전	-11.3648
▁존재하고	-11.3649
▁총대주교	-11.365
▁도시들	-11.365
▁외모	-11.365
척의	-11.3651
미스	-11.3652
val	-11.3654
▁품종	-11.3656
▁연예인	-11.3656
▁본사를	-11.3656
▁360	-11.3656
ade	-11.3656
▁넘기	-11.3657
Li	-11.3659
▁1860	-11.3659
Pro	-11.366
▁누리	-11.366
▁벌어졌다	-11.3661
▁동년	-11.3662
bu	-11.3662
▁양반	-11.3663
▁마블	-11.3665
▁떨어지는	-11.3665
▁후임	-11.3666
고자	-11.3666
▁그다지	-11.3667
▁유래했다	-11.3667
포로	-11.3668
▁자전	-11.3669
▁흐르	-11.3669
렇	-11.3669
▁스핀	-11.3669
뷔	-11.3669
▁시장을	-11.3671
▁인가	-11.3671
▁유지하는	-11.3672
▁학업	-11.3672
▁투표를	-11.3672
▁회사이다	-11.3673
▁매개	-11.3674
▁숙청	-11.3675
▁굿	-11.3675
az	-11.3676
▁킨	-11.3676
▁총애	-11.3676
▁다음에	-11.3676
▁2-1	-11.3676
▁성의	-11.3679
▁황제로	-11.3679
▁대변	-11.3679
작곡	-11.3679
▁탐색	-11.3682
郎	-11.3683
▁오사카부	-11.3684
▁심의	-11.3686
▁환경을	-11.3687
▁대패	-11.3689
▁Car	-11.369
▁세이부	-11.3691
▁힌두교	-11.3693
▁아담	-11.3695
▁오라	-11.3699
▁과목	-11.3699
▁호랑이	-11.37
율을	-11.37
▁공간이	-11.3701
▁죽인	-11.3702
▁딸인	-11.3703
▁속도는	-11.3704
▁수련	-11.3705
▁밝히고	-11.3708
▁카를로스	-11.3708
▁대치	-11.3708
▁소매	-11.3709
▁동형	-11.371
▁만일	-11.371
▁이글스	-11.371
▁당원	-11.3715
進	-11.3716
с	-11.3716
▁평범한	-11.3716
▁추세	-11.3717
미니	-11.3718
▁기존에	-11.3719
류가	-11.3719
타를	-11.372
朱	-11.3723
▁차이는	-11.3723
▁주가	-11.3723
보병사단	-11.3726
산이	-11.3726
▁북부의	-11.3728
▁수학적	-11.373
바흐	-11.3731
만여	-11.3732
cal	-11.3735
▁일관	-11.3736
▁패키지	-11.3736
▁작품에서	-11.3737
▁전통을	-11.3738
▁차량이	-11.3738
▁비단	-11.3739
▁취항	-11.3739
▁머무르	-11.3743
▁생략	-11.3745
▁엔딩	-11.3745
▁오노	-11.3747
▁아직까지	-11.3749
▁신학교	-11.3749
랩	-11.3751
▁빛이	-11.3753
~18	-11.3753
▁신도	-11.3754
▁나올	-11.3755
▁is	-11.3756
▁예선에서	-11.3757
》("	-11.3757
▁지냈고	-11.3757
▁개미	-11.3758
pro	-11.3759
▁황족	-11.3759
토미	-11.3759
▁베니	-11.376
▁옳	-11.376
▁해역	-11.3763
▁관련한	-11.3763
▁우유	-11.3763
꼴	-11.3767
▁꼭짓점	-11.3769
▁싶은	-11.377
사업을	-11.377
str	-11.3771
▁돌격	-11.3771
▁딜	-11.3772
▁중성자	-11.3773
沈	-11.3776
▁연봉	-11.3778
▁뇌물	-11.3778
▁주도로	-11.3779
서로	-11.3782
아스	-11.3782
統	-11.3783
▁운동은	-11.3783
▁게스트	-11.3785
▁매력	-11.3786
루가	-11.3787
▁냉전	-11.3787
것으로	-11.3788
▁지바	-11.3789
工	-11.3789
▁돼	-11.3789
靈	-11.3789
阿	-11.379
▁문과에	-11.379
▁지질	-11.379
시리즈	-11.379
예를	-11.3791
끔	-11.3791
▁표방	-11.3796
▁탤런트	-11.3796
▁제네바	-11.3796
바스	-11.3797
sta	-11.3799
▁노동조합	-11.38
▁밀란	-11.38
▁설치한	-11.3802
▁해상에서	-11.3803
전시	-11.3803
鳳	-11.3803
▁기각	-11.3804
ü	-11.3804
▁센다이	-11.3805
▁변화에	-11.3805
즈가	-11.3805
궐	-11.3807
▁무료로	-11.3807
Bo	-11.3808
▁피로	-11.3809
▁에리	-11.3809
▁가벼운	-11.381
▁알루미늄	-11.381
것이	-11.381
▁있기도	-11.3811
적이지	-11.3815
렸는데	-11.3817
▁저주	-11.3817
▁베어	-11.3819
▁이루어지	-11.3819
▁연방의	-11.382
▁프라이	-11.382
시노	-11.3824
땅	-11.3824
▁요구를	-11.3824
프린	-11.3825
토가	-11.3826
ith	-11.3826
▁측의	-11.3827
스트로	-11.3832
영역	-11.3834
▁생산량	-11.3835
▁먼지	-11.3837
라크	-11.3837
校	-11.3837
▁컴백	-11.3839
▁문구	-11.384
▁종은	-11.3841
빗	-11.3841
▁제도가	-11.3842
▁산하에	-11.3844
▁닦	-11.3844
▁대회의	-11.3846
▁광저우	-11.3846
▁어업	-11.3847
▁협상을	-11.3847
▁필리프	-11.3848
물은	-11.3848
베스	-11.3849
▁빌라	-11.3853
Pr	-11.3855
▁언급한	-11.3855
▁마음이	-11.3855
▁연결된다	-11.3856
▁취약	-11.3856
▁나비	-11.3861
▁유방	-11.3862
▁예술가	-11.3863
▁단층	-11.3863
百	-11.3864
▁꺼	-11.3864
▁탑신	-11.3864
▁텍사스주	-11.3866
▁자유로운	-11.3866
▁뉴욕주	-11.3867
▁이루어지지	-11.3867
▁101	-11.3867
졌던	-11.3867
▁메시지를	-11.3868
▁상소	-11.3868
▁스틸	-11.387
▁드라이버	-11.387
▁멜로	-11.3871
▁기다리	-11.3871
▁리틀	-11.3872
인에게	-11.3872
▁북쪽의	-11.3872
위와	-11.3873
▁무어	-11.3874
기기	-11.3874
▁갱신	-11.3874
▁쿠르	-11.3875
쿠니	-11.3875
▁끊임없이	-11.3876
▁고고학	-11.3878
(2007	-11.3878
▁어른	-11.3878
eat	-11.3879
사나	-11.3882
▁with	-11.3884
▁청산	-11.3884
▁묶어	-11.3884
▁외의	-11.3885
▁무늬	-11.3886
▁사상자	-11.3887
콕	-11.3888
▁삼촌	-11.3888
청년	-11.3889
▁탱크	-11.3894
▁물의	-11.3894
미치	-11.3895
▁고분	-11.3896
印	-11.3897
▁횡단	-11.3897
▁개발하고	-11.3898
▁뒷받침	-11.3904
▁래퍼	-11.3908
질환	-11.3909
▁나가는	-11.3909
▁마을의	-11.3911
▁위치하는	-11.3911
▁몸길이	-11.3912
▁과정이	-11.3912
▁아이스	-11.3913
ney	-11.3914
▁방문한	-11.3916
▁최강	-11.3917
▁베리	-11.3918
▁짓는	-11.3918
▁적어	-11.392
▁몬스터	-11.3921
▁학계	-11.3921
년대까지	-11.3921
▁소모	-11.3922
등으로	-11.3924
伯	-11.3924
▁장례식	-11.3925
▁지리	-11.3925
▁우라	-11.3925
▁주민들은	-11.3927
▁원반	-11.3928
▁충전	-11.3928
▁시위대	-11.3929
▁디자인을	-11.393
▁불어	-11.3931
NG	-11.3936
▁성문	-11.3937
▁개발이	-11.3938
▁버전의	-11.3938
▁설도	-11.3939
ven	-11.3939
▁만주국	-11.3939
▁딸로	-11.3939
툼	-11.3941
▁응시	-11.3941
▁부채	-11.3941
푸르	-11.3941
▁준수	-11.3942
▁러시아어	-11.3943
▁도와주	-11.3943
▁출시한	-11.3943
▁햄	-11.3944
愛	-11.3944
▁매니저	-11.3945
佐	-11.3945
▁누나	-11.3945
층으로	-11.3945
▁잡았다	-11.3945
체스터	-11.3945
▁스코	-11.3946
▁곤란	-11.3946
▁대한민국과	-11.3948
▁유래된	-11.3949
▁정신을	-11.3949
▁회의를	-11.3951
夏	-11.3951
▁체류	-11.3952
영이	-11.3952
▁마찬가지	-11.3955
▁스타리그	-11.3957
▁Bu	-11.3957
▁전문가들	-11.3958
라와	-11.3958
▁릴리	-11.3958
팍	-11.3958
▁미하일	-11.3959
▁폼	-11.3959
▁맵	-11.396
▁그리스도의	-11.396
▁함으로써	-11.3961
▁피하기	-11.3961
▁하단	-11.3962
▁역임하고	-11.3962
▁바뀌	-11.3968
술을	-11.3968
▁다운	-11.3969
▁결선	-11.397
▁이복	-11.3971
▁이성계	-11.3972
▁된다는	-11.3974
▁난민	-11.3975
▁비판이	-11.3975
▁연구원	-11.3976
▁군대에	-11.3976
곡동	-11.3977
▁위쪽	-11.3979
소로	-11.398
▁보호를	-11.3982
오가	-11.3983
▁패배를	-11.3983
▁안토니오	-11.3985
친다	-11.3986
▁장면을	-11.3986
▁전자기	-11.3987
▁분명	-11.3987
▁주장은	-11.3988
▁왕은	-11.3989
▁이유가	-11.399
이든	-11.399
▁대통령에	-11.399
▁직면	-11.3992
▁지방을	-11.3992
器	-11.3992
(2008	-11.3993
▁기술적	-11.3993
흠	-11.3993
▁표현을	-11.3995
▁Ex	-11.3996
▁터치	-11.3997
DP	-11.3998
퐁	-11.3999
▁흔한	-11.3999
▁올랐고	-11.3999
승지	-11.4
able	-11.4002
_15	-11.4004
위성	-11.4004
ET	-11.4004
관광	-11.4005
하마	-11.4005
▁폭로	-11.4006
錫	-11.4006
▁북동쪽	-11.4007
▁기록하면서	-11.4008
▁경상남도의	-11.4009
▁바탕	-11.4013
▁사용자들	-11.4013
▁본거지	-11.4013
▁알려지게	-11.4013
▁station	-11.4015
▁어머니가	-11.4016
비에	-11.4016
р	-11.4018
▁장군의	-11.4018
소방서	-11.4019
였을	-11.4019
▁발견하였다	-11.402
▁설명하는	-11.402
플러	-11.402
▁환경에	-11.4021
▁걸리	-11.4022
▁군에	-11.4023
▁시기를	-11.4023
아마	-11.4024
form	-11.4028
▁이경	-11.4029
▁축조	-11.403
▁플래시	-11.4031
LI	-11.4031
▁남기	-11.4033
▁고시	-11.4033
▁플라스틱	-11.4033
▁맥주	-11.4034
▁부피	-11.4034
▁트로이	-11.4034
▁패널	-11.4035
arch	-11.4035
▁오지	-11.4036
▁욕구	-11.4036
▁Ha	-11.4036
▁마그	-11.4036
주택	-11.4036
▁넣는	-11.4037
▁갈등을	-11.4039
랑이	-11.404
크가	-11.404
▁끓	-11.404
호선과	-11.4041
▁선을	-11.4041
▁시종	-11.4041
▁창고	-11.4043
강에서	-11.4043
겠	-11.4047
▁독립적인	-11.4047
?)	-11.405
▁음료	-11.4053
▁레이스	-11.4054
▁개관	-11.4054
경은	-11.4054
air	-11.4055
▁금요일	-11.4055
굿	-11.4055
▁아버지를	-11.4055
스틴	-11.4056
▁자유형	-11.4056
▁후속작	-11.4057
▁데모	-11.4057
▁중도	-11.4058
▁즉위한	-11.4058
▁왕국을	-11.4059
▁미쳤다	-11.406
▁거주지	-11.4061
▁재무	-11.4061
▁발급	-11.4062
▁무라	-11.4063
▁타격을	-11.4063
▁말하면	-11.4063
▁단축	-11.4064
▁시드	-11.4065
▁사망하자	-11.4066
BO	-11.4066
▁깃	-11.4066
▁꽃은	-11.4066
▁취하고	-11.4066
親	-11.4067
롭게	-11.4067
▁유진	-11.4067
El	-11.4067
▁School	-11.4068
熙	-11.4068
▁원로원	-11.4071
▁한미	-11.4072
▁1889	-11.4072
▁하라	-11.4073
▁연고지로	-11.4073
▁단행	-11.4073
▁용산	-11.4073
▁워터	-11.4075
-12	-11.4076
나미	-11.4079
▁밖에도	-11.4079
▁슈팅	-11.408
▁그루	-11.408
禪	-11.4081
姜	-11.4081
▁깃발	-11.4082
▁불리고	-11.4083
▁테이프	-11.4083
day	-11.4085
▁3,000	-11.4085
▁토양	-11.4086
사르	-11.4086
것을	-11.4086
▁기사를	-11.4086
줌	-11.4088
▁기갑	-11.4088
▁강남구	-11.4088
▁것임을	-11.4088
▁생겨	-11.4091
▁종속	-11.4092
▁이루며	-11.4093
▁미라	-11.4095
動	-11.4095
▁지키는	-11.4095
▁웹툰	-11.4096
TF	-11.4096
▁거울	-11.4096
▁남서부	-11.4097
▁키보드	-11.4097
▁남기고	-11.4098
▁막는	-11.4102
▁전체에	-11.4103
▁점성술	-11.4103
▁연산자	-11.4107
▁도카이	-11.411
▁동일하다	-11.411
▁루스	-11.4111
▁1871	-11.4112
▁등용	-11.4112
장이다	-11.4112
▁블레	-11.4113
시카	-11.4113
했는지	-11.4113
▁관람	-11.4115
▁에콰도르	-11.4116
▁노태우	-11.4116
烈	-11.4116
▁파란색	-11.4119
▁방사선	-11.4119
▁형태이다	-11.412
▁투르	-11.412
▁시위를	-11.4121
빌딩	-11.4121
▁그들에게	-11.4122
여행	-11.4124
▁오비	-11.4124
av	-11.4124
▁잡혀	-11.4124
스트리	-11.4125
▁네팔	-11.4127
▁레바논	-11.413
務	-11.413
▁역사적인	-11.413
▁더이상	-11.4133
▁20%	-11.4134
▁기초를	-11.4134
절차	-11.4135
▁증진	-11.4136
판의	-11.4136
▁넓게	-11.4137
ere	-11.4137
▁명종	-11.4137
▁시즌이	-11.4138
▁되지만	-11.4139
▁이남	-11.4141
▁미소	-11.4141
▁•	-11.4142
▁교양	-11.4143
▁조세	-11.4143
▁머물렀다	-11.4143
▁퀘벡	-11.4143
▁즐겨	-11.4143
▁파산	-11.4146
소와	-11.4146
▁뚜렷한	-11.4146
▁대회에서는	-11.4146
▁애칭	-11.4149
수단	-11.415
▁카리브	-11.4152
▁Sch	-11.4153
▁완벽한	-11.4156
▁77	-11.4156
▁엔진은	-11.4159
▁갈수록	-11.4159
▁리만	-11.416
-11	-11.416
▁살았던	-11.4161
▁아무도	-11.4162
리시	-11.4162
▁초나라	-11.4163
▁평가된다	-11.4163
▁색채	-11.4163
湖	-11.4164
냉	-11.4167
▁LP	-11.4167
▁중복	-11.4168
▁우승자	-11.4168
▁높아지	-11.4168
펙	-11.4169
mp	-11.4169
▁시켜	-11.417
훈장	-11.417
▁군정	-11.417
▁전체적인	-11.4171
각을	-11.4171
▁전략적	-11.4171
왔는데	-11.4171
▁팔리	-11.4172
(2005	-11.4172
▁가능성	-11.4172
▁기저	-11.4174
주의와	-11.4174
▁결혼하여	-11.4175
▁서유럽	-11.4176
▁게임에서	-11.4177
▁선출된	-11.4177
▁하남	-11.4177
團	-11.4178
▁모서리	-11.4179
▁디스	-11.4179
▁자선	-11.4179
▁퇴역	-11.418
▁예배	-11.4181
▁사단법인이다	-11.4181
▁모용	-11.4181
히라	-11.4182
슈퍼	-11.4183
▁텔레	-11.4184
권에서	-11.4184
cl	-11.4185
ino	-11.4187
리움	-11.4188
▁처음부터	-11.4189
▁그후	-11.419
ari	-11.4191
▁우승한	-11.4191
지부	-11.4191
공이	-11.4191
▁리치	-11.4193
▁간토	-11.4195
▁대두	-11.4195
카쓰	-11.4196
▁재능을	-11.4197
▁누가	-11.4198
▁방안	-11.4198
▁존재가	-11.4199
▁프로듀싱	-11.4199
▁앨범의	-11.42
▁제국을	-11.42
▁대통령으로	-11.4201
▁기초로	-11.4202
▁몸이	-11.4202
건의	-11.4202
▁승강장이	-11.4202
▁경찰관	-11.4202
▁불과하다	-11.4203
▁개념으로	-11.4204
▁공격에	-11.4205
造	-11.4206
▁크리스토퍼	-11.4206
▁라이온즈	-11.4206
민은	-11.4207
▁별들	-11.4207
▁학자들	-11.4207
국인	-11.4208
민주주의	-11.4208
▁이집트의	-11.4208
▁보편	-11.421
▁남서쪽	-11.4211
▁일으킬	-11.4213
었다고	-11.4213
툴	-11.4216
▁안에는	-11.4216
▁전반에	-11.4217
▁소속팀	-11.4217
sen	-11.4217
▁가져온	-11.4218
시나	-11.4219
▁생식	-11.4219
▁경찰에	-11.422
▁흔들	-11.422
▁부설	-11.422
▁북극	-11.4221
▁쓰시마	-11.4223
▁벽돌	-11.4224
▁동치	-11.4225
▁이론에	-11.4226
▁예시	-11.4227
ν	-11.4227
▁프레스	-11.4227
▁고개	-11.4228
▁가을에	-11.423
▁선배	-11.4231
▁별칭	-11.4232
▁김창	-11.4232
트레	-11.4233
▁단절	-11.4234
▁함선	-11.4239
▁펑크	-11.424
碑	-11.4241
▁정의한다	-11.4243
dd	-11.4243
공파	-11.4245
▁비공식	-11.4245
▁인자	-11.4246
▁사살	-11.4246
역에	-11.4247
▁출토	-11.4248
진영	-11.4249
▁통보	-11.4249
ros	-11.4249
자들과	-11.4249
▁베어스	-11.4249
▁활성	-11.425
▁당연히	-11.425
▁이때부터	-11.4251
Robert	-11.4252
▁차이로	-11.4252
▁값이	-11.4253
▁So	-11.4253
▁대성	-11.4255
리야	-11.4256
▁나주	-11.4257
▁만료	-11.4258
▁기증	-11.4259
▁동문	-11.426
▁대가로	-11.4261
▁신하	-11.4263
숙종	-11.4265
▁5,000	-11.4265
▁96	-11.4266
▁Un	-11.4268
大夫	-11.4268
▁남원	-11.427
▁제목의	-11.427
▁원내	-11.427
질서	-11.427
vo	-11.4271
▁출신인	-11.4272
▁자이	-11.4272
▁이야기는	-11.4273
▁""	-11.4273
ev	-11.4275
▁해당된다	-11.4275
▁아돌프	-11.4276
▁비율이	-11.4279
▁케냐	-11.4279
포켓몬스터	-11.4281
▁천문	-11.4281
▁챌린지	-11.4283
ham	-11.4284
(2001	-11.4284
▁복소수	-11.4285
회로	-11.4287
지기도	-11.4292
즈미	-11.4292
▁결정하였다	-11.4293
▁대학교에	-11.4294
▁실패한	-11.4294
▁증후군	-11.4294
▁국제적인	-11.4297
▁박스	-11.4297
▁정리한	-11.4298
▁이론의	-11.4298
_14	-11.4298
▁사슬	-11.4299
▁들어갈	-11.4299
▁좌측	-11.43
MB	-11.43
▁먹을	-11.4301
▁경찰서	-11.4303
▁책의	-11.4303
▁손으로	-11.4303
▁조선인민군	-11.4304
DR	-11.4304
▁살려	-11.4305
▁무너지	-11.4306
▁관리를	-11.4308
▁하차	-11.431
EM	-11.4312
▁일이다	-11.4315
▁진행하고	-11.4315
▁인터내셔널	-11.4316
▁부회장	-11.4316
▁비치	-11.4318
▁시체	-11.4318
▁무대를	-11.4319
▁행사를	-11.4322
▁부를	-11.4323
▁강점기의	-11.4323
▁미키	-11.4324
~8	-11.4324
▁높게	-11.4325
▁코드를	-11.4325
▁마음에	-11.4328
▁서신	-11.4329
▁수원시	-11.4329
▁버리	-11.4329
▁바리	-11.4329
ort	-11.4329
치오	-11.433
▁도덕적	-11.433
將軍	-11.4331
▁구멍	-11.4331
識	-11.4332
▁외관	-11.4333
▁프로젝트를	-11.4333
▁신축	-11.4335
▁아시안컵	-11.4337
관찰사	-11.4337
▁마라	-11.4338
▁도요토미	-11.4339
▁헤비	-11.434
▁발병	-11.4341
편에	-11.4342
▁일대를	-11.4342
인들	-11.4344
관과	-11.4345
▁뒤쪽	-11.4345
▁쾌	-11.4346
마력	-11.4346
現	-11.4346
▁피해가	-11.4349
▁벼슬을	-11.435
▁전당	-11.435
▁요소들	-11.435
▁광학	-11.4351
및	-11.4351
만화	-11.4352
lus	-11.4352
▁차량은	-11.4352
▁음악적	-11.4353
町	-11.4353
▁1-0	-11.4357
니어	-11.4358
터를	-11.4359
라트	-11.4361
▁자신들이	-11.4362
▁문예	-11.4362
▁3·1	-11.4363
랙	-11.4364
▁각색	-11.4365
▁수단으로	-11.4365
▁택시	-11.4366
▁여성이	-11.4366
▁한층	-11.4367
草	-11.4368
되나	-11.437
▁크리스티안	-11.437
산에	-11.437
▁진도	-11.4371
티브	-11.4371
▁램	-11.4372
▁전역에	-11.4372
경에	-11.4372
우지	-11.4374
▁드라	-11.4374
중대	-11.4375
▁교정	-11.4377
▁목표는	-11.438
▁패한	-11.4381
▁지도자들	-11.4381
위기	-11.4381
關	-11.4382
▁국영	-11.4382
ef	-11.4385
EP	-11.4385
▁안티	-11.4386
▁표현하는	-11.4386
▁특집	-11.4386
▁군인들	-11.4389
해군	-11.4389
▁근무했다	-11.4389
▁특색	-11.439
▁CJ	-11.439
리로	-11.439
▁1800	-11.439
▁제곱	-11.4391
편을	-11.4391
▁담당했다	-11.4391
▁기금	-11.4393
한테	-11.4393
▁대표적으로	-11.4393
▁전역에서	-11.4393
▁오이	-11.4394
}	-11.4395
▁베트남의	-11.4395
▁아시카가	-11.4396
▁싸워	-11.4397
▁복음	-11.4399
연합회	-11.44
▁수색	-11.4401
▁고래	-11.4401
▁문서를	-11.4402
당과	-11.4402
리얼	-11.4404
▁노트	-11.4405
▁지나면서	-11.4407
▁적자	-11.4407
▁기적	-11.4408
▁바실리	-11.4409
▁목소리를	-11.4409
▁일어났	-11.4409
프의	-11.4409
▁존재할	-11.441
解	-11.441
▁프톨레마이오스	-11.441
▁술을	-11.441
▁생물학적	-11.441
My	-11.4412
키타	-11.4412
▁기아	-11.4412
▁소식	-11.4414
▁체중	-11.4415
▁방화	-11.4416
▁회장을	-11.4417
▁이를테면	-11.4417
▁까닭	-11.4417
티드	-11.4419
▁등극	-11.4419
▁카프	-11.4423
▁1870	-11.4423
▁마우	-11.4425
▁올리고	-11.4425
▁그렇지만	-11.4427
티는	-11.4427
▁시즌부터	-11.4429
▁단어는	-11.443
▁67	-11.443
▁점령한	-11.443
▁클라우드	-11.4431
ι	-11.4432
고도	-11.4432
▁발칸	-11.4433
▁본문	-11.4434
▁매달	-11.4434
▁딱	-11.4435
▁Sp	-11.4435
AD	-11.4435
ero	-11.4437
▁73	-11.4437
킨스	-11.4437
▁잡은	-11.4439
▁새겨진	-11.444
▁바뀌어	-11.444
▁소셜	-11.4442
▁도입하였다	-11.4443
과학기술	-11.4443
▁장기간	-11.4446
▁퇴임	-11.4446
參	-11.4446
▁남동생	-11.4446
氣	-11.4446
▁한국방송공사	-11.4446
▁두개골	-11.4446
▁건설되었다	-11.4446
▁수확	-11.4448
▁IS	-11.4448
로그	-11.4448
산초등학교	-11.4449
▁만족시키는	-11.445
▁성남시	-11.445
▁동정	-11.445
▁운행한다	-11.4451
▁결정하는	-11.4452
▁기하여	-11.4453
▁두께	-11.4454
▁가라	-11.4458
ref	-11.4458
▁나열	-11.4459
▁공부를	-11.446
▁초신성	-11.4461
층을	-11.4462
▁주장하며	-11.4462
AF	-11.4464
界	-11.4467
▁문제의	-11.4467
▁케빈	-11.4467
red	-11.4469
▁머리에	-11.4469
▁이탈리아에서	-11.447
▁발견되지	-11.4472
▁영동	-11.4473
▁계획이다	-11.4473
▁위나라	-11.4473
▁간선	-11.4474
豊	-11.4474
▁Ba	-11.4475
▁쳐들어	-11.4475
▁상원의원	-11.4476
▁세기	-11.4476
ric	-11.4476
▁플레이어는	-11.4477
공의	-11.4477
▁자민당	-11.4482
십자	-11.4482
▁2.5	-11.4483
▁차량을	-11.4484
참모	-11.4485
▁하프	-11.4486
ood	-11.4487
▁오크	-11.4488
총회	-11.4488
意	-11.4489
▁접하며	-11.4489
▁이룬	-11.449
통을	-11.449
▁역사에	-11.449
▁전력을	-11.449
아가	-11.449
▁나아	-11.4491
전과	-11.4491
모든	-11.4492
마크	-11.4494
▁미시시피	-11.4496
▁케임브리지	-11.4496
▁발을	-11.4496
▁안치	-11.4496
▁아라비아	-11.4497
▁감안	-11.4497
▁발언을	-11.4498
▁대변인	-11.4498
▁요정	-11.45
▁추산	-11.4501
▁중요성을	-11.4502
▁다녔다	-11.4503
항은	-11.4503
▁번성	-11.4504
▁것만	-11.4504
▁해결하기	-11.4504
▁비자	-11.4504
▁팜	-11.4504
▁입국	-11.4505
둑	-11.4507
▁동행	-11.4507
▁비밀리에	-11.4507
IT	-11.4507
▁다양성	-11.4508
ink	-11.4509
▁팀에서	-11.4509
▁중요성	-11.451
색으로	-11.451
勝	-11.451
▁제재	-11.4511
▁견해를	-11.4511
시켰으며	-11.4511
붙	-11.4515
획	-11.4515
▁*	-11.4517
▁아버지인	-11.4517
▁기질	-11.4517
▁진행되는	-11.4518
▁다니는	-11.4518
▁로그	-11.4519
점의	-11.4519
▁성체	-11.4519
이하	-11.452
했습니다	-11.452
▁유연	-11.4522
숲	-11.4524
▁아폴로	-11.4525
질량	-11.4525
▁건축물이다	-11.4525
▁결정한다	-11.4525
▁구호	-11.4526
▁서북	-11.4526
▁동위	-11.4527
▁헌신	-11.4532
▁올라간다	-11.4533
▁곁	-11.4534
산으로	-11.4534
▁나머지는	-11.4535
▁업계	-11.4535
▁조약에	-11.4535
랐다	-11.4536
데일	-11.4537
▁조인	-11.4538
▁갈아	-11.4539
▁박탈	-11.4539
▁매카트니	-11.454
▁벌어	-11.4541
지점	-11.4541
Col	-11.4542
사이트	-11.4543
비와	-11.4544
▁나뉘	-11.4544
ark	-11.4545
▁로이	-11.4545
▁대통령과	-11.4546
율은	-11.4547
uk	-11.4548
펠트	-11.4551
▁사람도	-11.4552
모로	-11.4552
▁임명된	-11.4553
▁성운	-11.4554
▁스위치	-11.4556
Ho	-11.4557
▁EC	-11.4557
▁그것들	-11.4557
▁워크	-11.4558
붕	-11.4559
▁대군	-11.456
▁상트페테르부르크	-11.4561
할때	-11.4562
법칙	-11.4562
스피	-11.4563
▁종의	-11.4566
아트	-11.4568
▁안드레	-11.457
▁쌓은	-11.4572
判	-11.4574
수준	-11.4576
▁일부분	-11.4576
▁유학을	-11.4576
▁괴물	-11.4576
▁모시	-11.4577
인권	-11.4577
라드	-11.4578
▁비틀즈	-11.4579
▁품고	-11.458
▁얼굴을	-11.458
여명	-11.458
군에게	-11.4581
궈	-11.4582
▁노르웨이의	-11.4584
판으로	-11.4584
▁칙	-11.4584
▁정계	-11.4585
▁교통국	-11.4586
보가	-11.4586
▁충청도	-11.4588
▁그곳에	-11.459
▁일하는	-11.4591
▁맞은	-11.4591
전략	-11.4592
▁Ra	-11.4592
▁위치는	-11.4592
▁비율은	-11.4595
▁김홍	-11.4596
허가	-11.4597
▁맡기	-11.4599
우의	-11.4605
▁성도	-11.4605
지인	-11.4605
▁보호하기	-11.4606
▁군함	-11.4607
ye	-11.4608
▁요원	-11.4608
▁Pe	-11.4611
▁부분의	-11.4611
▁ex	-11.4612
▁성능을	-11.4612
▁연기자	-11.4613
▁받았지만	-11.4614
-23	-11.4614
▁몫	-11.4614
▁받침	-11.4614
▁승자	-11.4615
▁준주	-11.4615
▁고통을	-11.4616
▁원천	-11.4617
▁것들이	-11.4617
▁쫓아	-11.4618
榮	-11.4619
居	-11.4619
▁순회	-11.462
▁LA	-11.4621
▁문자를	-11.4621
▁짐작	-11.4622
▁추가적인	-11.4622
히트	-11.4623
▁직경	-11.4624
▁때에도	-11.4625
к	-11.4626
▁영향이	-11.4628
왔지만	-11.4629
▁객관적	-11.4629
▁2021	-11.463
여개	-11.463
▁시대부터	-11.4631
▁레온	-11.4632
텀	-11.4633
▁가지가	-11.4633
▁볼리비아	-11.4633
▁영천	-11.4634
▁구미	-11.4635
인산	-11.4636
▁지지율	-11.4636
▁읽는	-11.4636
▁청동	-11.464
非	-11.464
祭	-11.4641
▁기록으로	-11.4641
▁맞붙	-11.4641
해양	-11.4643
▁왕권	-11.4645
▁온도가	-11.4645
▁소프트	-11.4645
car	-11.4647
시대의	-11.4647
뱅	-11.4647
령으로	-11.4649
원장	-11.465
▁드러났다	-11.4653
▁표기법	-11.4653
▁전적	-11.4653
▁기고	-11.4656
▁드래프트에서	-11.4656
▁워드	-11.4656
▁팀과	-11.4659
▁자음	-11.4661
▁임관	-11.4661
▁우승팀	-11.4662
千	-11.4662
ology	-11.4663
▁고아	-11.4663
▁프란츠	-11.4664
▁프로그램에	-11.4664
▁1883	-11.4665
▁잘라	-11.4666
▁기술은	-11.4667
▁구형	-11.4668
▁룩셈부르크	-11.467
▁남작	-11.467
▁한족	-11.4671
▁설교	-11.4672
▁펑	-11.4672
▁연고	-11.4674
ple	-11.4676
▁비석	-11.4676
▁태양을	-11.4677
▁사카이	-11.4677
▁프로덕션	-11.4677
橋	-11.4677
▁일반적	-11.4677
▁윤리	-11.4677
▁설립되었으며	-11.4679
▁쾌속	-11.468
▁방사성	-11.468
노동자	-11.468
▁누르	-11.4681
▁필터	-11.4683
▁취업	-11.4685
▁교원	-11.4685
▁주축	-11.4685
대회에서	-11.4686
▁구도	-11.4686
▁확실한	-11.4686
▁평가했다	-11.4686
▁떨어졌다	-11.4686
▁한스	-11.4688
▁작업에	-11.4689
▁석탑	-11.4691
ative	-11.4691
▁이진	-11.4693
터가	-11.4693
여자중학교	-11.4694
▁가고	-11.4695
분자	-11.4696
위원회가	-11.4698
▁물품	-11.4699
치와	-11.4699
▁천재	-11.4699
▁남미	-11.4699
~10	-11.47
▁산출	-11.4703
네이션	-11.4705
▁우주의	-11.4706
▁홍문관	-11.4706
aw	-11.4706
▁킬로미터	-11.4708
ins	-11.471
렸으나	-11.4711
▁니콜라이	-11.4713
▁압력을	-11.4714
▁짝	-11.4715
정책을	-11.4716
▁추증	-11.4717
▁동생인	-11.4717
▁질량이	-11.472
▁비롯	-11.4721
▁땄다	-11.4721
▁모노	-11.4721
▁복귀했다	-11.4722
▁여주	-11.4723
지금의	-11.4724
푸아	-11.4725
뚝	-11.4725
▁법정동	-11.4729
리티	-11.4729
▁북아프리카	-11.4729
▁동학	-11.473
온은	-11.473
▁이병	-11.4731
했음을	-11.4732
▁수용체	-11.4732
관련	-11.4733
▁보게	-11.4733
▁차지하며	-11.4733
▁요약	-11.4736
지역에	-11.4738
▁원본	-11.4738
카는	-11.4739
현을	-11.474
~7	-11.4741
▁별은	-11.4741
ä	-11.4743
伊	-11.4743
▁총리가	-11.4743
▁호응	-11.4744
▁목록에	-11.4744
▁돌입	-11.4744
배를	-11.4745
▁되어있다	-11.4746
▁30%	-11.4746
▁화제	-11.4747
MO	-11.4747
▁비판하였다	-11.4749
▁유용	-11.4749
정사	-11.475
ail	-11.475
▁본인이	-11.4751
▁물질의	-11.4752
▁선거구이다	-11.4752
가족	-11.4753
ator	-11.4753
▁아이디어	-11.4754
▁한국시리즈	-11.4755
▁붙여진	-11.4757
▁했을	-11.4757
▁평안남도	-11.4758
商	-11.4758
▁도입된	-11.4758
▁북서쪽으로	-11.4758
▁오른손	-11.4759
▁파일을	-11.476
▁삼국시대	-11.4761
▁시공	-11.4761
되어있다	-11.4762
복음	-11.4763
▁</	-11.4763
▁가열	-11.4763
▁천문대	-11.4764
BL	-11.4765
儀	-11.4765
▁뒤이어	-11.4766
▁본관	-11.4767
ode	-11.4768
▁그릇	-11.4771
▁생체	-11.4772
의료	-11.4774
▁통용	-11.4774
▁해마다	-11.4774
▁설치하고	-11.4775
▁안으로	-11.4775
생물	-11.4775
▁공감	-11.4782
되므로	-11.4783
▁독서	-11.4784
포인트	-11.4784
▁실시한	-11.4786
▁아케이드	-11.4787
세기까지	-11.4788
▁레슬링	-11.4788
▁소송을	-11.4788
(9	-11.4792
▁어항	-11.4792
▁병으로	-11.4793
타스	-11.4794
세손	-11.4794
▁흥선대원군	-11.4795
▁사헌부	-11.4795
혹은	-11.4795
▁어미	-11.4796
▁낮다	-11.4797
Se	-11.4799
▁포로로	-11.48
▁그러다가	-11.4801
(2015	-11.4803
▁파라과이	-11.4803
▁상업적	-11.4804
▁초월	-11.4805
▁곳의	-11.4805
▁사례가	-11.4807
▁효종	-11.4807
목적	-11.4807
자형	-11.481
▁만성	-11.481
씨를	-11.4811
쳤으며	-11.4811
▁분량	-11.4812
:0	-11.4812
▁확실	-11.4812
▁트라이	-11.4813
Un	-11.4813
▁바르샤바	-11.4817
加	-11.4817
▁관장	-11.4817
▁지정되었다가	-11.4817
▁한성	-11.4817
▁레일	-11.4818
▁사카	-11.4818
Me	-11.4818
▁포획	-11.4819
▁느끼	-11.4819
▁덮여	-11.482
타워	-11.482
▁와카	-11.4821
▁철도가	-11.4822
닿	-11.4822
▁목을	-11.4823
▁생물학	-11.4823
▁원료	-11.4824
TR	-11.4825
▁학회	-11.4825
▁동성애	-11.4831
▁옥스퍼드	-11.4832
▁나란히	-11.4832
墓	-11.4832
▁과장	-11.4832
To	-11.4833
사무	-11.4834
▁생겨나	-11.4834
▁중위	-11.4835
▁가져오	-11.4835
▁제국과	-11.4836
▁거처	-11.4836
▁86	-11.4836
▁런던의	-11.4837
▁교과서	-11.484
ild	-11.4841
▁언어의	-11.4841
▁상자	-11.4841
▁69	-11.4841
▁생긴다	-11.4842
라우	-11.4843
▁각지에서	-11.4843
장사	-11.4843
비오	-11.4843
▁외국어	-11.4844
▁공리	-11.4844
▁역에	-11.4845
문학상	-11.485
▁측에	-11.4854
▁헌법재판소	-11.4855
▁에미	-11.4856
▁경연	-11.4856
MI	-11.4856
▁시정	-11.4856
그는	-11.4857
▁마을에서	-11.4858
▁붙었다	-11.4858
입자	-11.4859
▁설치하여	-11.4859
NC	-11.4859
미술관	-11.486
▁어뢰	-11.486
▁주주	-11.4861
―	-11.4861
▁워너	-11.4862
▁프라하	-11.4862
▁민정	-11.4862
▁주역	-11.4864
▁Time	-11.4865
▁트리플	-11.4865
▁손님	-11.4865
▁시중	-11.4866
▁김병	-11.4866
晉	-11.4869
▁드러머	-11.4869
▁옮긴	-11.4869
병이	-11.487
▁스즈키	-11.4871
▁깔	-11.4872
▁CO	-11.4872
▁불가능한	-11.4873
▁몸길이는	-11.4876
遠	-11.4877
▁조정에	-11.4877
▁하야	-11.4877
▁정문	-11.4877
▁알지	-11.4879
▁효율	-11.488
▁컴퍼니	-11.4882
▁거북	-11.4883
鐵	-11.4884
▁다이아몬드	-11.4884
해졌고	-11.4884
▁새겨	-11.4887
▁제안했다	-11.4888
▁취임하였다	-11.489
▁위키	-11.4891
▁기차	-11.4892
▁지칭	-11.4893
▁제나라	-11.4895
개소	-11.4897
바람	-11.4898
전력	-11.4898
▁제치고	-11.4899
▁be	-11.4903
ok	-11.4904
▁청색	-11.4904
▁둔다	-11.4907
▁시리즈를	-11.4907
▁경계로	-11.4909
▁사용하면	-11.4911
워드	-11.4911
▁시상	-11.4912
내용	-11.4912
▁공민왕	-11.4913
力	-11.4914
초의	-11.4916
편이	-11.4917
▁달이	-11.4917
▁게임으로	-11.4917
사자	-11.4918
론에서	-11.4918
▁열린다	-11.4918
▁요르단	-11.4921
ash	-11.4922
▁정보가	-11.4922
▁자료가	-11.4923
내기	-11.4924
엔진	-11.4924
▁유대교	-11.4924
▁개원	-11.4926
▁서문	-11.4926
곡으로	-11.4927
▁다항식	-11.4929
류와	-11.4929
기자	-11.4929
▁함부르크	-11.493
▁자작	-11.493
▁스미	-11.4931
▁서자	-11.4933
▁78	-11.4934
▁페이스	-11.4934
▁헌정	-11.4935
왕을	-11.4935
▁낳은	-11.4936
ki	-11.4937
▁더욱이	-11.4937
▁공격하여	-11.4939
▁슈트	-11.4941
주의는	-11.4941
▁숙부	-11.4941
▁이북	-11.4942
▁어머니의	-11.4942
▁울리	-11.4944
▁평안북도	-11.4944
▁아시	-11.4948
▁출신이며	-11.4948
▁창출	-11.4948
▁세워져	-11.4948
마타	-11.4948
원군	-11.4949
학사	-11.495
▁시뮬레이션	-11.4951
줬다	-11.4952
▁대신해	-11.4953
HA	-11.4953
▁수준으로	-11.4953
▁고유의	-11.4954
▁81	-11.4955
태양	-11.4955
▁치러	-11.4956
▁국제적	-11.4957
▁성장을	-11.4957
▁형성하고	-11.4957
▁똑같은	-11.4958
흡	-11.496
교육을	-11.496
▁상담	-11.4963
▁사이토	-11.4964
▁붉은색	-11.4965
사장	-11.4965
▁불꽃	-11.4966
▁극작가	-11.4967
▁사고를	-11.4968
▁취미	-11.4968
▁라이프	-11.497
▁해고	-11.497
▁방면으로	-11.497
▁그레고리오	-11.4971
▁최하위	-11.4974
▁다발	-11.4975
▁벨리	-11.4975
by	-11.4976
▁끝날	-11.4977
▁극한	-11.4977
▁아래는	-11.4979
▁고등학교를	-11.4981
삼국사기	-11.4981
케르	-11.4981
遺	-11.4981
바둑	-11.4982
▁부가	-11.4984
▁섬이다	-11.4984
초를	-11.4984
▁학문을	-11.4989
▁방법에	-11.499
▁붐	-11.4991
▁에버	-11.4995
▁알렉산드리아	-11.4996
▁붙였다	-11.4996
▁겉보기	-11.4996
▁선거는	-11.4997
▁함정	-11.4998
값을	-11.4999
No	-11.4999
▁연예	-11.4999
▁느낀	-11.5
▁무조건	-11.5001
▁엽	-11.5001
▁제조업	-11.5002
훼	-11.5004
윅	-11.5004
▁달걀	-11.5004
▁프로그램으로	-11.5004
인물	-11.5005
▁키예프	-11.5006
▁조부	-11.5008
▁사랑하는	-11.5008
▁강풍	-11.5009
▁의미는	-11.501
▁점령하고	-11.5012
끄	-11.5013
▁계정	-11.5013
축제	-11.5013
크리	-11.5014
▁신의	-11.5014
▁연루	-11.5015
▁저지대	-11.5018
▁아래쪽	-11.5019
ini	-11.5019
▁있었	-11.502
▁동참	-11.5022
차트	-11.5022
▁살라	-11.5024
▁마을에	-11.5024
트르	-11.5024
▁중앙부	-11.5025
▁탄도	-11.5025
▁클라이언트	-11.5026
▁실시하고	-11.5027
인칭	-11.5028
▁중앙아시아	-11.5029
▁때문이라고	-11.503
▁말까지	-11.503
왜	-11.5032
orn	-11.5033
起	-11.5034
▁같은해	-11.5035
▁권장	-11.5035
시경	-11.5035
▁900	-11.5037
▁선생의	-11.5038
▁새로이	-11.5039
▁입주	-11.5041
▁개화	-11.5041
츄	-11.5042
vel	-11.5042
▁원인을	-11.5042
니에	-11.5042
▁원장	-11.5042
민이	-11.5043
▁제국에	-11.5043
공동	-11.5043
▁정점	-11.5043
씨와	-11.5044
헝가리	-11.5048
▁평론가	-11.5048
▁수료	-11.5048
▁북동쪽으로	-11.5049
▁태권도	-11.5049
▁조립	-11.505
▁가족은	-11.505
니의	-11.505
▁호위	-11.5051
▁공격해	-11.5052
▁Gu	-11.5054
▁역사학자	-11.5054
선수권대회	-11.5054
▁후작	-11.5057
▁이관	-11.5058
▁체크	-11.5058
(2016	-11.5059
▁상공	-11.5059
▁공용어	-11.5062
▁휴대	-11.5062
▁부작용	-11.5063
▁요코	-11.5063
라바	-11.5064
▁최대풍속	-11.5064
益	-11.5064
기둥	-11.5066
▁시작하면서	-11.5067
▁보도했다	-11.5068
천면	-11.5068
▁줄거리	-11.5069
▁기술의	-11.5069
▁카시	-11.507
植	-11.5072
▁게르	-11.5073
아래	-11.5073
▁끄	-11.5073
▁보증	-11.5076
되도록	-11.5076
▁캔	-11.5077
▁{	-11.5078
▁맺은	-11.5078
아일랜드	-11.5079
겁	-11.5079
▁센고쿠	-11.508
▁실권	-11.508
▁러셀	-11.5081
▁동성애자	-11.5082
왔	-11.5083
▁말고	-11.5083
토키	-11.5083
nes	-11.5084
수학	-11.5085
▁꽃이	-11.5086
▁가옥	-11.5086
▁검출	-11.5086
ren	-11.5087
꺼	-11.5087
▁무슨	-11.5088
▁섞	-11.5088
▁옐	-11.5089
▁끌고	-11.5089
▁공수	-11.5089
오고	-11.5091
▁구성원들	-11.5093
▁시작하였으며	-11.5094
▁견인	-11.5094
▁단어를	-11.5095
能	-11.5095
黨	-11.5095
▁정치적으로	-11.5095
dis	-11.5096
▁진출한	-11.5096
▁둘러싸여	-11.5097
식품	-11.5097
▁이즈	-11.5098
▁넘어서	-11.5098
▁대응하는	-11.5099
▁후보는	-11.5101
▁사본	-11.5101
▁무죄	-11.5102
뫼	-11.5102
▁임원	-11.5103
▁헬륨	-11.5103
▁부근에서	-11.5103
▁前	-11.5103
▁사업에	-11.5103
▁분출	-11.5105
▁관광지	-11.5106
언론	-11.5107
lor	-11.5107
▁그렸다	-11.5107
▁투르크	-11.5109
▁히어로즈	-11.5109
▁대한민국은	-11.511
竹	-11.511
▁원인으로	-11.511
▁칼뱅	-11.5111
하자는	-11.5111
▁수행할	-11.5112
bl	-11.5112
▁느낌	-11.5113
▁고려의	-11.5114
보건	-11.5115
▁물건을	-11.5117
▁축성	-11.5117
경이	-11.5118
▁궁중	-11.5119
▁가정에서	-11.5121
▁리뷰	-11.5123
▁디트로이트	-11.5125
機	-11.5125
處	-11.5126
▁리더십	-11.5127
▁일조	-11.5127
▁Korea	-11.5128
▁의결	-11.5128
▁남아있	-11.5128
▁있거나	-11.5128
브스	-11.5129
▁결론을	-11.5129
▁Mi	-11.5129
▁끌었다	-11.5129
잡지	-11.5131
▁없던	-11.5131
주지	-11.5133
▁뒤에도	-11.5134
▁릴	-11.5136
▁즐기	-11.5136
▁박영	-11.5136
▁시와	-11.5137
▁정체성	-11.5137
▁로렌	-11.5138
▁섬은	-11.5138
석과	-11.5138
▁포기하고	-11.514
▁잡는	-11.5142
▁하노이	-11.5142
▁맞고	-11.5143
▁1882	-11.5144
▁미즈	-11.5146
▁동아	-11.5147
▁애틀랜타	-11.5148
▁연대기	-11.5148
사기	-11.5149
▁공격했다	-11.5149
끈	-11.515
▁드리	-11.515
▁김민	-11.5151
족을	-11.5151
▁묘사한	-11.5152
▁동조	-11.5153
엔터테인먼트	-11.5156
운수	-11.5156
액을	-11.5156
母	-11.5156
▁임명되었고	-11.5157
▁집결	-11.5159
ya	-11.516
▁스탠	-11.5161
▁74	-11.5162
▁신정	-11.5164
▁각도	-11.5164
지역에서	-11.5164
▁상법	-11.5164
hu	-11.5165
▁규범	-11.5165
SR	-11.5167
▁체력	-11.5167
리트	-11.5167
비안	-11.5168
▁Po	-11.5169
att	-11.5169
▁나중에는	-11.5169
곡이	-11.5171
▁움	-11.5172
▁해를	-11.5172
▁유체	-11.5175
▁당수	-11.5175
코의	-11.5175
농업	-11.5175
▁KIA	-11.5176
▁신원	-11.5177
▁분수	-11.5177
▁데뷔한	-11.5177
▁주조	-11.5178
▁MP	-11.5179
▁여우주연상	-11.5179
▁의미하며	-11.5179
▁가군	-11.518
▁오피스	-11.5182
쁘	-11.5183
dr	-11.5184
▁면허	-11.5185
qui	-11.5186
▁연고지	-11.5189
OL	-11.5192
over	-11.5192
▁소나무	-11.5193
領	-11.5194
沙	-11.5194
갱	-11.5194
▁아스널	-11.5195
우며	-11.5196
▁알려주	-11.5197
▁채소	-11.5198
▁권총	-11.5198
틱스	-11.5198
▁원격	-11.5199
▁보복	-11.52
▁대역	-11.52
▁빈곤	-11.52
기관으로	-11.5201
畵	-11.5202
▁제기되었다	-11.5205
▁매매	-11.5206
▁생겨난	-11.5208
▁생겼	-11.5208
▁작용을	-11.5208
▁예고	-11.5209
부원군	-11.5209
듀	-11.521
(2004	-11.5211
▁알렉	-11.5212
부리그	-11.5213
IG	-11.5213
▁구성되었다	-11.5213
▁앨범에	-11.5214
▁누적	-11.5214
▁반전	-11.5214
▁유닉스	-11.5215
▁크기를	-11.5216
시다	-11.5217
▁부드러운	-11.5217
▁손권	-11.5218
시대에	-11.5218
만장	-11.5218
eb	-11.5219
로이드	-11.5219
▁물질이	-11.5219
▁진사	-11.5219
▁보내고	-11.522
▁명에	-11.5221
▁단기	-11.5221
▁몰수	-11.5223
▁타원형	-11.5225
CH	-11.5225
▁해밀턴	-11.5225
▁버클리	-11.5226
▁나타내고	-11.5226
▁캐리	-11.5226
▁사바	-11.5227
▁정립	-11.5227
▁도시에서	-11.5228
▁조반니	-11.5228
건물	-11.523
국과	-11.5231
▁산하의	-11.5231
▁저기압	-11.5233
▁대부	-11.5234
올해의	-11.5234
른다	-11.5234
ax	-11.5236
▁위헌	-11.5237
▁접수	-11.5238
블러	-11.5238
▁자란다	-11.5238
▁하구	-11.5238
티우스	-11.5239
▁관직에	-11.524
▁보리	-11.524
히사	-11.5241
▁경기장이다	-11.5245
▁지선	-11.5245
▁이내에	-11.5247
▁잃어	-11.5248
률은	-11.5248
TI	-11.5248
。	-11.5248
스테르	-11.525
진과	-11.525
얄	-11.5254
▁독일이	-11.5255
魏	-11.5256
▁연결되는	-11.5256
▁보수당	-11.5256
▁기사단	-11.5257
▁모인	-11.5258
▁리스	-11.5259
▁개념이다	-11.5259
▁그밖에	-11.5262
▁빔	-11.5263
NK	-11.5263
IF	-11.5264
▁육군의	-11.5264
▁특권	-11.5264
마스터	-11.5266
▁퓨	-11.5267
선교	-11.5267
▁출석	-11.5268
▁피고인	-11.527
▁갖지	-11.527
▁84	-11.527
▁분리된	-11.5272
모음	-11.5272
▁로비	-11.5272
~15	-11.5272
▁델타	-11.5273
▁들어올	-11.5273
▁예정이었으나	-11.5273
▁밀러	-11.5275
EX	-11.5276
레이터	-11.5276
▁재계약	-11.5277
▁염증	-11.5279
▁온갖	-11.5279
▁흔적이	-11.5281
자기	-11.5282
▁기르	-11.5282
▁격렬한	-11.5282
▁1892	-11.5283
▁자세히	-11.5284
▁휘하의	-11.5285
뮤직	-11.5285
펫	-11.5287
▁용서	-11.5287
▁밖에서	-11.5289
▁로빈	-11.529
▁촉매	-11.5291
uc	-11.5292
▁장소로	-11.5292
▁지옥	-11.5292
異	-11.5295
▁막대	-11.5296
▁요새를	-11.5297
▁좁	-11.5297
▁효과적으로	-11.53
▁남게	-11.5301
▁영역에서	-11.5302
귤	-11.5303
▁쪽에	-11.5303
▁용이	-11.5304
▁학생들의	-11.5306
▁타르	-11.5307
북면	-11.5309
고등학교를	-11.531
캣	-11.531
화물	-11.5312
▁불신	-11.5313
▁발원	-11.5314
▁등장하였다	-11.5314
토를	-11.5315
시타	-11.5315
▁연쇄	-11.5315
Th	-11.5317
▁펼쳤	-11.5318
▁프랭클린	-11.5318
▁System	-11.532
회전	-11.5322
내가	-11.5322
모니	-11.5322
▁계기	-11.5323
구리	-11.5323
▁민족의	-11.5324
있어	-11.5324
▁각국의	-11.5325
▁무함마드	-11.5326
▁알렉산드르	-11.5326
し	-11.5326
▁딸이다	-11.5327
형과	-11.5327
▁중대한	-11.5328
▁나오고	-11.5329
▁넘게	-11.5329
▁국어	-11.533
▁71	-11.533
▁본국	-11.533
▁표적	-11.5331
▁취임했다	-11.5331
유지	-11.5332
벅	-11.5334
▁통합하여	-11.5334
▁클럽이다	-11.5336
▁쥬	-11.5338
토쿠	-11.5338
▁작성한	-11.534
▁천수	-11.5341
▁이조판서	-11.5342
▁스트라이커	-11.5342
고등보통학교	-11.5342
▁파이널	-11.5342
▁심각	-11.5343
▁설명할	-11.5343
▁단행본	-11.5344
▁점에	-11.5344
▁도왔다	-11.5345
▁리베	-11.5347
▁밝	-11.5348
次	-11.5349
▁겁	-11.535
▁선과	-11.5354
▁낮추	-11.5355
▁떨	-11.5356
▁고향인	-11.5356
▁체포되었다	-11.5357
▁유벤투스	-11.5357
▁페이스북	-11.5358
바위	-11.5359
▁부정적	-11.5359
▁정성	-11.5359
LC	-11.5362
▁심야	-11.5362
▁안된다	-11.5363
하되	-11.5363
▁실재	-11.5363
include	-11.5365
▁함경남도	-11.5365
▁남동쪽으로	-11.5365
해야만	-11.5368
▁활발히	-11.5369
투어	-11.537
정원	-11.537
▁다케다	-11.5371
▁차용	-11.5371
▁보이스	-11.5371
되지는	-11.5371
▁1888	-11.5372
▁개인적인	-11.5373
지휘	-11.5373
▁애비뉴	-11.5373
秦	-11.5373
핏	-11.5373
▁하마	-11.5374
▁파도	-11.5375
▁되었던	-11.5376
갔으나	-11.5377
받는다	-11.5377
▁독성	-11.5378
광고	-11.5378
▁증거가	-11.5379
▁싸웠다	-11.5379
▁지난날	-11.5379
좌상	-11.538
▁냄새	-11.5381
▁가네	-11.5381
난다	-11.5382
두고	-11.5383
▁광양	-11.5385
▁상경	-11.5385
▁|	-11.5388
▁메커니즘	-11.5389
報	-11.5389
▁공표	-11.5389
폭력	-11.539
(2013	-11.5391
트론	-11.5392
▁보헤미아	-11.5396
▁아인슈타인	-11.5396
▁일으켰	-11.5398
▁실시간	-11.5399
▁창시자	-11.54
▁파이어	-11.5401
▁후기에	-11.5401
▁마카오	-11.5403
▁디오	-11.5403
▁모습은	-11.5403
▁친왕	-11.5403
▁입양	-11.5404
해지자	-11.5404
ρ	-11.5404
▁꼽힌다	-11.5404
得	-11.5405
과정을	-11.5406
▁바이킹	-11.5406
터미널	-11.5406
▁예수의	-11.5407
▁하우	-11.5408
▁국가는	-11.5408
▁사람들과	-11.5409
▁옴	-11.541
태종	-11.5411
▁차례의	-11.5411
▁직원들	-11.5411
▁미치지	-11.5412
ord	-11.5413
▁도착했다	-11.5414
▁맹세	-11.5414
Don	-11.5415
▁말부터	-11.5416
▁1893	-11.5416
우와	-11.5416
▁벨라	-11.5417
▁불안정	-11.5417
▁회피	-11.5417
▁구경	-11.5417
대리	-11.5417
▁비교해	-11.5418
▁고산	-11.5419
▁명성	-11.542
▁Qu	-11.5421
▁편에	-11.5421
▁교량	-11.5422
▁형성되어	-11.5423
추진	-11.5424
▁고쿠	-11.5425
▁질소	-11.5426
▁허위	-11.5426
▁지방산	-11.5427
▁거부하고	-11.5428
▁불타	-11.5431
▁매수	-11.5432
▁별개의	-11.5435
▁발령	-11.5436
개씩	-11.5437
only	-11.5439
▁관제	-11.5439
▁노르	-11.544
▁면제	-11.5442
▁언어는	-11.5443
▁총선거	-11.5445
▁올리는	-11.5446
▁작다	-11.5446
▁약자	-11.5446
보니	-11.5448
▁치고	-11.5448
▁기병대	-11.545
▁투수로	-11.5451
▁경향을	-11.5452
▁파나마	-11.5454
▁제한된	-11.5454
▁공익	-11.5454
▁싸이	-11.5457
▁예이다	-11.5457
▁AP	-11.5459
▁인디애나	-11.5459
▁트로피	-11.546
▁잠재적	-11.546
▁제프	-11.5461
▁전했다	-11.5461
▁건설된	-11.5464
▁지나는	-11.5465
▁1600	-11.5465
▁언급했다	-11.5466
++	-11.5467
실이	-11.5467
▁레인	-11.5467
▁성별	-11.5467
▁댄	-11.5467
▁선도	-11.5468
▁발리	-11.5468
▁정도를	-11.5469
▁시나	-11.5469
PO	-11.5469
천동	-11.547
▁분위기를	-11.547
대책	-11.5471
세기경	-11.5471
▁개항	-11.5471
▁80%	-11.5472
▁부적	-11.5475
Be	-11.5475
▁정치적인	-11.5476
▁CEO	-11.5476
▁가난	-11.5478
▁후반기	-11.5478
▁전염병	-11.5482
다람쥐	-11.5482
▁형성되었다	-11.5482
톤의	-11.5483
▁지키기	-11.5484
EL	-11.5484
리드	-11.5484
▁종교개혁	-11.5485
운동에	-11.5486
▁상행	-11.5487
▁적용되었다	-11.5489
▁캠	-11.5489
▁어둠	-11.5493
▁쪽은	-11.5495
▁시립	-11.5498
▁정권이	-11.5499
▁의원을	-11.5499
▁왜구	-11.5499
▁바꾸고	-11.5499
▁화학적	-11.55
▁무술	-11.55
▁정의된다	-11.55
▁안의	-11.5501
▁딸이	-11.5502
자치	-11.5502
꿈	-11.5503
바리	-11.5505
▁자랐다	-11.5506
센티미터	-11.5507
▁가나가와현	-11.5509
▁입수	-11.5509
▁완성된	-11.5512
▁소령	-11.5512
▁숨어	-11.5513
▁Is	-11.5513
▁봄에	-11.5514
▁■	-11.5514
▁재판을	-11.5514
자금	-11.5515
▁방향에	-11.5517
봄	-11.5519
▁수익을	-11.5519
▁주장에	-11.5519
▁줄여	-11.552
▁증권	-11.552
▁천문학자	-11.5521
▁실무	-11.5521
▁가르쳤다	-11.5523
회원	-11.5526
죄로	-11.5527
▁핑크	-11.5528
▁시바	-11.5531
術	-11.5531
▁일자리	-11.5531
▁연극배우	-11.5533
▁실버	-11.5533
▁소생	-11.5534
▁비롯된	-11.5536
종류	-11.5536
▁열도	-11.5536
▁침체	-11.5537
드레	-11.5538
_16	-11.5539
▁103	-11.554
▁연못	-11.5541
▁복음서	-11.5542
▁일이었다	-11.5542
겼고	-11.5543
▁제수	-11.5544
▁자크	-11.5544
ze	-11.5544
최고	-11.5545
▁작가이다	-11.5546
в	-11.5547
▁수축	-11.5547
▁싸우는	-11.5547
▁돌출	-11.555
▁공개했다	-11.5551
▁기관총	-11.5554
▁독도	-11.5554
▁루프	-11.5555
▁온다	-11.5558
▁혈관	-11.5558
▁민영	-11.5559
tis	-11.5559
SU	-11.5559
▁신도비	-11.556
아와	-11.5562
레인	-11.5563
▁회사인	-11.5564
즈와	-11.5565
▁일파	-11.5565
▁All	-11.5566
▁허가를	-11.5568
▁김지	-11.557
▁제국주의	-11.557
▁맨해튼	-11.5571
▁아미노산	-11.5571
恩	-11.5571
▁윤보선	-11.5571
실험	-11.5571
bit	-11.5573
Ne	-11.5575
▁커뮤니케이션	-11.5577
▁기여를	-11.5578
▁픽	-11.5578
泉	-11.5579
Lo	-11.5579
PD	-11.558
▁주를	-11.558
▁실력을	-11.5581
cent	-11.5582
▁퍼지	-11.5582
▁춘추	-11.5583
▁꿀	-11.5583
▁룰	-11.5583
▁주위를	-11.5583
주의에	-11.5585
자이자	-11.5585
cle	-11.5586
호텔	-11.5587
▁조형	-11.5587
▁남서쪽으로	-11.559
▁갈리아	-11.559
▁호프	-11.5591
▁대전이	-11.5592
▁상연	-11.5594
▁선발로	-11.5594
▁요청했다	-11.5595
▁밝혀진	-11.5596
▁사용되며	-11.5597
▁히사	-11.5598
▁밴드를	-11.5598
▁이룩	-11.5598
▁스페이스	-11.5598
▁87	-11.5598
▁자생	-11.5599
▁마녀	-11.5599
▁쓰여진	-11.5599
게이트	-11.56
▁학생들은	-11.56
▁소문이	-11.56
지나	-11.5602
惠	-11.5603
ا	-11.5603
▁설화	-11.5603
▁속편	-11.5603
▁별세	-11.5603
▁태어났	-11.5603
그림	-11.5603
▁에디션	-11.5604
비로	-11.5604
▁북아일랜드	-11.5604
연방	-11.5606
▁궤도를	-11.5606
덩이	-11.5609
▁비용이	-11.5609
▁김포	-11.561
▁마르크스주의	-11.561
▁썼	-11.561
크레	-11.561
▁유지하기	-11.5611
▁연기했다	-11.5611
▁무실점	-11.5611
▁위주로	-11.5611
!》	-11.5612
▁합친	-11.5612
▁어렸을	-11.5612
ans	-11.5613
▁로저	-11.5614
▁감동	-11.5615
▁대본	-11.5615
▁북경	-11.5615
▁1848	-11.5615
▁소리가	-11.5615
夫	-11.5617
▁하에서	-11.5617
gy	-11.5617
▁본작	-11.5618
▁고성	-11.5618
▁철학적	-11.5618
ose	-11.5619
누마	-11.5619
▁왕국은	-11.562
쿼	-11.5621
▁뻗	-11.5621
면과	-11.5622
▁개봉되었다	-11.5623
년도에	-11.5623
▁누구나	-11.5625
▁투어를	-11.5626
▁규정에	-11.5626
▁더글러스	-11.5627
www	-11.5627
chi	-11.5627
동원	-11.5627
▁Mc	-11.5628
▁가산	-11.5629
▁다크	-11.563
▁내용에	-11.563
▁중점을	-11.563
▁성전	-11.563
KA	-11.563
▁시절의	-11.563
▁Of	-11.5633
▁중심에	-11.5635
van	-11.5636
된다고	-11.5638
▁조수	-11.5639
▁일어나고	-11.5639
시에는	-11.5639
▁지구에	-11.564
▁불행	-11.5641
▁백제의	-11.5641
▁불린	-11.5642
▁선생님	-11.5642
資	-11.5643
▁도널드	-11.5643
ん	-11.5643
▁작업이	-11.5643
▁지키고	-11.5643
▁발렌시아	-11.5643
사회주의	-11.5647
▁진행했다	-11.5647
버전	-11.5649
▁게임이	-11.5651
可	-11.5651
▁체스	-11.5652
▁종점	-11.5653
▁전날	-11.5655
▁장원	-11.5657
▁불확실	-11.5659
▁최연소	-11.5659
▁학생들	-11.5661
▁추첨	-11.5661
클린	-11.5661
▁앞쪽	-11.5663
▁태백	-11.5664
▁단원	-11.5665
▁용암	-11.5665
▁쏟아	-11.5666
▁초빙	-11.5669
▁파병	-11.5669
▁개인이	-11.567
고래	-11.5672
▁유료	-11.5672
火	-11.5675
▁굵은	-11.5676
▁안경	-11.5676
▁학과	-11.5677
▁진해	-11.5679
▁기하학	-11.5679
▁천거	-11.5679
번은	-11.568
▁음악의	-11.5681
我	-11.5683
▁기반한	-11.5686
▁조지프	-11.5686
▁선행	-11.5686
지아	-11.5686
▁사회민주당	-11.5687
▁타점	-11.5688
▁체조	-11.5689
▁진전	-11.569
▁복합체	-11.569
New	-11.5691
▁컨트리	-11.5692
▁명분	-11.5693
녀를	-11.5694
교의	-11.5696
▁이해할	-11.5697
▁위험을	-11.5697
▁재질	-11.5698
▁익스프레스	-11.5699
▁옥수수	-11.5699
내의	-11.5702
▁급성	-11.5703
▁알리는	-11.5704
킬로미터	-11.5705
▁상금	-11.5706
▁치열한	-11.5707
▁Na	-11.5707
▁첨단	-11.5707
功臣	-11.5708
▁의자	-11.5709
▁보강	-11.571
토는	-11.571
▁공격으로	-11.5711
▁함수의	-11.5712
▁Day	-11.5712
▁테라	-11.5712
▁현행	-11.5714
hr	-11.5714
▁복용	-11.5715
▁도움	-11.5715
▁지도를	-11.5716
▁표준화	-11.5716
▁활주로	-11.5716
cus	-11.5717
크와	-11.5717
▁발생하여	-11.5718
tan	-11.5718
▁했었다	-11.572
▁더해	-11.5722
색이	-11.5722
▁이뤄지	-11.5722
들리	-11.5722
▁일으킨다	-11.5723
호선이	-11.5723
▁않자	-11.5724
▁다테	-11.5726
▁참가자	-11.5726
▁않아서	-11.5727
▁순조	-11.5727
▁경상	-11.5727
▁타협	-11.5728
▁공약	-11.5728
▁카나	-11.5729
지어	-11.573
▁여수	-11.5731
▁세종특별자치시	-11.5732
▁마닐라	-11.5732
▁박헌영	-11.5732
면서도	-11.5732
▁암흑	-11.5733
▁기록되었다	-11.5733
▁절단	-11.5733
▁상태의	-11.5734
▁아마존	-11.5734
▁우물	-11.5735
구성	-11.5735
▁최소화	-11.5735
▁대회가	-11.5735
〉()	-11.5736
직접적인	-11.5737
ring	-11.5738
미트	-11.5738
AI	-11.5738
▁지구를	-11.5738
▁갖추	-11.5739
▁어드벤처	-11.574
▁수행한다	-11.574
▁끌려	-11.574
▁거란	-11.574
▁지원하기	-11.5741
▁인정하는	-11.5742
▁선동	-11.5743
▁생겨났다	-11.5743
▁대학생	-11.5743
▁오로지	-11.5745
▁붓	-11.5745
н	-11.5747
▁득	-11.5747
▁강간	-11.5748
τ	-11.5748
결합	-11.5749
▁노선으로	-11.5749
▁거짓말	-11.575
▁투항	-11.575
▁단면	-11.5751
▁시달리	-11.5752
▁친분	-11.5753
uch	-11.5755
체와	-11.5755
▁터보	-11.5755
영의	-11.5756
▁받으면서	-11.5756
▁사업가	-11.5756
▁정해	-11.5756
岩	-11.5756
자였다	-11.5757
▁올랐으며	-11.5757
▁On	-11.5759
▁김정은	-11.576
▁약혼	-11.576
William	-11.576
▁개인전	-11.5762
▁감금	-11.5762
▁받아야	-11.5763
갈색	-11.5763
丁	-11.5764
▁아이디얼	-11.5765
▁진행하는	-11.5765
▁다마	-11.5765
▁활동하다가	-11.5766
위까지	-11.5766
▁일컬어	-11.5767
▁해체되었다	-11.5768
▁심화	-11.5769
▁클라크	-11.577
▁바꾸는	-11.577
▁역사와	-11.577
▁1868	-11.5771
▁감자	-11.5772
室	-11.5772
탄을	-11.5773
▁아프	-11.5773
▁마라톤	-11.5774
▁실패하고	-11.5775
킴	-11.5775
▁형성하는	-11.5776
▁나의	-11.5777
▁BC	-11.5777
▁자비	-11.5778
▁목적이	-11.5779
텍스	-11.5781
▁개최국	-11.5783
▁지미	-11.5783
▁은퇴하였다	-11.5783
▁사전에	-11.5783
렉스	-11.5784
이름	-11.5784
▁가자	-11.5784
▁케이스	-11.5785
▁뛰었다	-11.5785
토록	-11.5785
ene	-11.5786
▁믿는	-11.5786
▁격자	-11.5788
▁섞어	-11.5788
▁전시회	-11.5788
▁관계자	-11.5789
▁기본으로	-11.5789
▁추론	-11.579
▁왼손	-11.579
ute	-11.579
▁캐나다에서	-11.5792
▁지우	-11.5793
▁체인	-11.5794
렸지만	-11.5794
덱	-11.5795
▁합당	-11.5795
▁장군은	-11.5796
륭	-11.5797
▁카타르	-11.5797
▁그녀에게	-11.5797
▁겐지	-11.5797
코리아	-11.5798
▁무대에서	-11.5799
메스	-11.58
▁미사일을	-11.58
세스	-11.5803
▁농사	-11.5804
▁만의	-11.5804
柱	-11.5805
▁반군	-11.5807
DC	-11.5807
▁표현한	-11.5808
▁지출	-11.5808
▁닥	-11.5808
됐던	-11.5809
▁카트	-11.5809
산과	-11.5811
▁배려	-11.5812
Paul	-11.5813
▁마다가스카르	-11.5813
紀	-11.5813
▁은거	-11.5814
▁박정	-11.5819
▁걸린	-11.5819
파이어	-11.582
品	-11.5822
▁변화는	-11.5822
▁슬라브	-11.5822
▁나타나고	-11.5822
David	-11.5823
▁절차를	-11.5823
▁교회를	-11.5823
▁부대가	-11.5826
▁무대로	-11.5826
▁발라	-11.5827
par	-11.5827
▁국가와	-11.5828
先	-11.5829
▁전국적으로	-11.5829
鍾	-11.583
▁점유	-11.5832
▁李	-11.5832
▁조성된	-11.5834
mar	-11.5834
▁거부했다	-11.5835
과정에서	-11.5836
▁제작사	-11.5838
▁닉	-11.5838
▁즐길	-11.5838
父	-11.5838
▁웨스턴	-11.5839
▁관할했다	-11.584
▁계약이	-11.584
▁그로부터	-11.5841
▁역사에서	-11.5842
▁사각형	-11.5843
있지	-11.5843
▁좌표	-11.5844
▁예수회	-11.5844
▁이빨	-11.5844
▁총사령관	-11.5844
▁경찰이	-11.5846
▁아리스토텔레스	-11.5846
▁뾰족	-11.5846
▁천연기념물	-11.5846
▁콤팩트	-11.5846
▁내용이다	-11.5846
▁사우	-11.5847
▁1886	-11.5847
전대	-11.5848
▁출가	-11.5848
▁읽고	-11.5848
▁따왔다	-11.5848
▁장면이	-11.5849
▁곡물	-11.5852
▁오기	-11.5854
▁듀오	-11.5854
▁패밀리	-11.5855
레네	-11.5856
뮤	-11.5857
▁찬양	-11.5858
▁승강장을	-11.5859
▁지분	-11.5859
▁정치를	-11.586
노트	-11.5862
昭	-11.5863
▁호의	-11.5863
사용	-11.5864
그로	-11.5864
졌을	-11.5865
Do	-11.5866
▁벤치	-11.5867
▁책이다	-11.5868
ky	-11.5869
▁스노	-11.587
▁쿤	-11.5871
▁원전	-11.5873
▁포스터	-11.5874
▁초점	-11.5875
▁co	-11.5875
▁기업이	-11.5876
▁니콜	-11.5877
▁비평가들	-11.5877
▁들은	-11.588
▁휠	-11.588
▁군산	-11.5883
▁테르	-11.5883
▁헬기	-11.5884
▁한민족	-11.5884
▁난카이	-11.5886
ella	-11.5886
우회	-11.5886
적이었다	-11.5887
뮈	-11.5887
受	-11.5887
▁음악에	-11.5887
▁뻔	-11.5888
▁벽화	-11.5889
▁복권	-11.5889
▁지닌다	-11.5891
▁아산	-11.5891
CL	-11.5893
▁일반인	-11.5894
공작	-11.5895
▁손해배상	-11.5896
▁거치	-11.5897
설계	-11.5897
▁왕건	-11.5897
▁닫힌	-11.5898
▁정경	-11.5898
▁지리적	-11.5899
이끼	-11.59
▁마침	-11.59
▁Or	-11.5902
▁고려하여	-11.5902
▁아가	-11.5902
셨다	-11.5902
▁카터	-11.5903
▁자칭	-11.5903
▁기여하였다	-11.5905
▁도시에	-11.5906
▁흉노	-11.5908
관에서	-11.5909
▁떼	-11.591
▁야마가타	-11.5912
▁격투	-11.5912
▁케플러	-11.5913
떠	-11.5913
경의	-11.5914
청이	-11.5915
웃	-11.5916
▁항소	-11.5916
▁문화가	-11.5918
▁헌법에	-11.5918
▁저격	-11.592
▁출판되었다	-11.592
▁스톡홀름	-11.592
▁극심한	-11.592
▁접근할	-11.5927
옷	-11.5927
▁퇴직	-11.5927
▁셈	-11.5928
▁100%	-11.5928
▁김규식	-11.5929
類	-11.5929
▁이전부터	-11.593
▁노선이다	-11.593
▁선택할	-11.5931
증권	-11.5932
▁단독으로	-11.5933
뉘	-11.5934
▁압도	-11.5934
▁전위	-11.5934
혐	-11.5935
▁종파	-11.5935
▁방송인	-11.5935
측의	-11.5935
지느러미	-11.5937
▁임정	-11.5937
▁합스부르크	-11.5937
수이다	-11.5939
▁승강	-11.5941
▁유타	-11.5941
둠	-11.5943
친왕	-11.5943
▁정치에	-11.5944
일러	-11.5944
▁잃었	-11.5945
영상	-11.5945
ect	-11.5945
初	-11.5945
▁친일반민족행위	-11.5945
▁쓰레기	-11.5945
James	-11.5946
길을	-11.5947
▁일주일	-11.5947
▁죽기	-11.5947
▁대학교를	-11.5947
▁가문은	-11.5948
▁히트곡	-11.5951
▁남북으로	-11.5952
▁사용하기도	-11.5952
▁제퍼슨	-11.5954
캄	-11.5954
▁교육부	-11.5955
PP	-11.5956
리치	-11.5956
▁반란군	-11.5956
▁평화를	-11.5957
▁음향	-11.5957
되었음을	-11.5957
_17	-11.5958
▁학교의	-11.5958
▁이용된다	-11.5959
즈키	-11.5959
교구	-11.5961
▁담당한다	-11.5961
曲	-11.5962
▁시애틀	-11.5962
▁미래의	-11.5962
교육청	-11.5963
봇	-11.5963
WA	-11.5963
▁가격이	-11.5964
▁방송되는	-11.5966
▁세력은	-11.5967
▁청사	-11.5968
▁79	-11.5969
▁경기로	-11.597
▁실정	-11.597
崇	-11.597
▁의회에서	-11.597
▁배운	-11.5972
▁병원에서	-11.5972
▁부각	-11.5974
▁최적화	-11.5974
▁105	-11.5975
▁때려	-11.5977
▁엔지니어	-11.5977
▁코믹	-11.5977
사관학교	-11.5978
▁대합실	-11.5978
CE	-11.5978
▁시라	-11.5979
▁과실	-11.598
대통령	-11.598
▁Ne	-11.5984
▁물려	-11.5984
토의	-11.5984
▁우파	-11.5985
▁재편	-11.5986
콥	-11.5987
▁서재필	-11.5987
▁이광	-11.5987
▁메달을	-11.5988
▁처녀	-11.5989
위원회의	-11.599
▁로마에서	-11.599
그러	-11.5991
▁오늘날에는	-11.5991
▁총무	-11.5993
嘉	-11.5995
か	-11.5995
▁지침	-11.5995
▁변경했다	-11.5996
▁중퇴	-11.5998
▁제도에	-11.5999
▁라스	-11.6
▁학생들을	-11.6001
▁치아	-11.6002
▁영국인	-11.6003
해질	-11.6003
▁돌연변이	-11.6003
▁이뤄	-11.6004
▁동일하게	-11.6004
▁선이	-11.6005
PM	-11.6005
▁일어나지	-11.6006
▁아치	-11.6006
회의에서	-11.6007
▁찰	-11.6007
공정	-11.6007
식에	-11.6007
쪽으로	-11.6008
▁나루	-11.6008
▁경질	-11.6009
▁외에는	-11.6009
희의	-11.6009
▁배우자	-11.6011
▁극장에서	-11.6015
▁아부	-11.6018
▁주목할	-11.6018
엣	-11.6019
타와	-11.602
행위를	-11.602
men	-11.6021
▁3.1	-11.6021
떼	-11.6022
▁돌로	-11.6023
피트	-11.6023
▁후진	-11.6025
▁안드레아	-11.6025
▁토착	-11.6026
▁전통적	-11.6026
▁상황은	-11.6026
▁1887	-11.6026
▁내야수	-11.6027
작으로	-11.6027
▁전방	-11.6028
▁받았다고	-11.6028
노래	-11.6028
삐	-11.6028
目	-11.6029
▁상관없이	-11.6029
IV	-11.603
심사	-11.6033
▁가맹	-11.6034
▁주목받	-11.6036
▁콰	-11.6036
▁운영되고	-11.6037
▁폭격기	-11.6038
컴퓨터	-11.6039
▁지지자들	-11.6039
▁가계	-11.604
▁연구에서	-11.6041
▁전하는	-11.6042
▁켈리	-11.6042
▁인접해	-11.6044
▁SP	-11.6045
營	-11.6045
▁사무총장	-11.6045
▁불규칙	-11.6047
암동	-11.6047
평론가	-11.6047
강도	-11.6048
▁힘으로	-11.6049
▁점수를	-11.6051
▁폭포	-11.6052
▁끼쳤다	-11.6052
재료	-11.6052
▁종말	-11.6052
▁선수는	-11.6053
俊	-11.6054
▁어쩔	-11.6054
▁염소	-11.6054
▁년간	-11.6054
▁Music	-11.6055
나가는	-11.6055
▁90%	-11.6056
▁And	-11.6056
▁내무부	-11.6058
▁시스템에	-11.6059
티니	-11.606
▁낫	-11.6063
▁제작을	-11.6063
▁나타났	-11.6063
pt	-11.6064
▁모로	-11.6065
▁기념하여	-11.6066
▁보낸다	-11.6066
▁로키	-11.6067
인구	-11.6068
▁생전에	-11.6068
▁서진	-11.6068
▁위험이	-11.6069
▁직통	-11.607
▁듀얼	-11.6071
org	-11.6071
▁브랜	-11.6072
▁강하다	-11.6073
Ac	-11.6073
▁플라이	-11.6074
장비	-11.6074
▁우승했다	-11.6076
▁길에	-11.6076
ο	-11.6079
▁오클랜드	-11.6079
果	-11.6079
姓	-11.6079
▁법조인	-11.6079
▁위와	-11.6081
라기	-11.6085
▁전격	-11.6087
땃쥐	-11.6087
▁방글라데시	-11.6087
▁궁궐	-11.6088
▁하류	-11.6088
▁토지를	-11.609
려면	-11.6091
▁흐름을	-11.6091
▁스튜디오에서	-11.6091
▁SD	-11.6095
▁게릴라	-11.6096
▁의혹이	-11.6096
▁국왕의	-11.6096
▁내어	-11.6097
▁강철	-11.6098
동면	-11.6098
▁이건	-11.61
▁코끼리	-11.6101
ture	-11.6101
▁건물이다	-11.6101
줘	-11.6101
▁용어이다	-11.6102
▁논란을	-11.6102
▁포괄	-11.6103
▁경주시	-11.6103
개국에서	-11.6105
코르	-11.6107
▁350	-11.6107
향교	-11.6108
▁나타나지	-11.6108
▁파손	-11.6109
끄러	-11.6109
졌	-11.611
▁더비	-11.611
▁실린	-11.611
골로	-11.6112
어드	-11.6112
總	-11.6112
▁여운형	-11.6113
▁내리는	-11.6113
대에서	-11.6113
▁리그를	-11.6114
▁노론	-11.6115
▁영화제에서	-11.6115
펄	-11.6115
▁메카	-11.6115
교류	-11.6116
▁통치자	-11.6116
▁갈등이	-11.6116
▁긍정적	-11.6117
▁97	-11.6119
池	-11.6121
▁랭	-11.6121
▁이론에서	-11.6123
▁놓인	-11.6124
▁지도부	-11.6125
▁기간은	-11.6126
▁중국에	-11.6126
들보다	-11.6126
▁청춘	-11.6126
▁실전	-11.6126
▁공명	-11.6127
▁성리학	-11.6127
▁CBS	-11.6129
▁종류로	-11.613
▁늦게	-11.613
▁나라들	-11.6132
▁대기업	-11.6132
▁방문하여	-11.6132
ings	-11.6132
▁버마	-11.6132
▁장흥	-11.6133
년경에	-11.6134
▁엔진이	-11.6135
▁평민	-11.6135
▁그림자	-11.6135
▁도장	-11.6135
▁밭	-11.6136
▁닛폰	-11.6138
법상	-11.6138
▁쾰른	-11.6138
▁호족	-11.6139
▁비하여	-11.6143
칸의	-11.6144
▁태국의	-11.6145
▁타이거스	-11.6147
▁문화와	-11.6148
▁듣는	-11.6148
▁지원하고	-11.6149
▁숙주	-11.6149
▁가루	-11.6151
inter	-11.6152
▁찐	-11.6153
▁반역	-11.6153
▁모스	-11.6154
▁올바른	-11.6155
▁헥	-11.6156
▁설명하고	-11.6157
▁늘어났다	-11.6157
vis	-11.6158
Tr	-11.6158
▁j	-11.6159
▁포착	-11.6159
▁엘리트	-11.616
▁못하여	-11.616
▁신학자	-11.6162
PE	-11.6162
▁장로교	-11.6162
▁팔아	-11.6163
盧	-11.6163
宇	-11.6163
う	-11.6163
▁긴테쓰	-11.6164
故	-11.6164
▁쉽다	-11.6164
▁미생물	-11.6164
oy	-11.6164
▁프랑스에	-11.6166
▁벌여	-11.6167
▁신형	-11.6169
▁제시한	-11.6169
▁카스티야	-11.6172
舍	-11.6172
▁함자	-11.6172
▁듣지	-11.6172
▁전래	-11.6173
▁보존되어	-11.6173
▁표현할	-11.6175
▁돌보	-11.6175
▁파문	-11.6175
속에서	-11.6177
트랙	-11.6177
▁동성	-11.6177
▁깨어	-11.6177
▁국보	-11.6179
gg	-11.6179
률을	-11.6179
▁분파	-11.618
▁가족과	-11.618
씬	-11.618
공은	-11.618
▁넷째	-11.618
▁대성전	-11.6181
▁드디어	-11.6181
▁1891	-11.6183
▁대북	-11.6183
▁중령	-11.6183
▁명명되었다	-11.6183
▁여겼다	-11.6184
MBC	-11.6185
시안	-11.6186
▁플루	-11.6187
▁International	-11.6187
な	-11.6189
咸	-11.6189
정동	-11.6191
샹	-11.6192
음으로	-11.6193
▁경관	-11.6193
▁정선	-11.6193
▁당내	-11.6194
▁추구하는	-11.6194
가능한	-11.6194
▁악단	-11.6195
▁문제와	-11.6196
▁그룹은	-11.6197
하겠다	-11.6201
▁관계없이	-11.6202
/4	-11.6203
▁뱅크	-11.6203
▁심사위원	-11.6204
푹	-11.6206
▁캐서린	-11.6206
▁생산된	-11.6207
▁중등	-11.6208
▁관절	-11.6208
▁초원	-11.6208
▁자결	-11.6209
▁참의원	-11.621
▁소련은	-11.621
▁교수를	-11.621
품으로	-11.6212
▁운행하고	-11.6213
▁솟아	-11.6213
▁컸다	-11.6214
해준다	-11.6215
▁따뜻한	-11.6216
발의	-11.6218
▁이용자	-11.6219
▁다툼	-11.6219
▁당연	-11.622
▁싸웠	-11.6222
Di	-11.6222
▁간주된다	-11.6223
다발	-11.6223
▁제주시	-11.6224
▁설립자	-11.6225
▁길다	-11.6226
보안	-11.6226
▁제출한	-11.6226
#	-11.6227
ool	-11.623
▁알래스카	-11.6231
▁인공지능	-11.6231
OC	-11.6231
▁가족의	-11.6233
위권	-11.6235
wo	-11.6236
ita	-11.6236
▁환자의	-11.6237
▁데서	-11.6237
ez	-11.6238
▁하인	-11.6239
▁안전한	-11.6239
▁Cl	-11.6241
▁검열	-11.6241
▁회상	-11.6241
강전에서	-11.6241
▁환자들	-11.6242
▁선수단은	-11.6242
▁내무	-11.6243
쥬	-11.6244
▁했	-11.6245
▁89	-11.6246
가능	-11.6247
▁우르	-11.6248
▁점령했다	-11.6248
소프트	-11.6249
▁은퇴했다	-11.6249
몬드	-11.625
▁발렌	-11.625
간신히	-11.6251
▁연산군	-11.6251
▁아타	-11.6251
▁시리즈는	-11.6252
▁Vi	-11.6252
▁앵	-11.6253
▁순으로	-11.6253
▁슐	-11.6254
▁92	-11.6255
▁수록예정자	-11.6257
▁유격수	-11.6257
▁지나가	-11.6258
▁찾아내	-11.6258
번으로	-11.626
스팅	-11.626
섬유	-11.6261
▁인류의	-11.6261
▁세레	-11.6262
▁많지	-11.6265
▁해리슨	-11.6265
▁평형	-11.6267
▁돌을	-11.6267
以	-11.6268
츠카	-11.6268
인들과	-11.6268
랫	-11.6269
렸	-11.627
분으로	-11.6271
Blue	-11.6272
▁심리적	-11.6272
▁모시고	-11.6274
▁얇은	-11.6274
▁똑같이	-11.6274
▁사라진	-11.6275
rit	-11.6277
노는	-11.6278
▁시호	-11.6279
▁2-0	-11.6279
▁출처	-11.628
▁역명	-11.6283
▁밴쿠버	-11.6283
▁퍼포먼스	-11.6283
▁헤르체고비나	-11.6283
ral	-11.6284
박물관에	-11.6284
▁시험을	-11.6286
har	-11.6286
▁MB	-11.6286
▁서쪽은	-11.6287
▁진행자	-11.6287
봉사	-11.6288
▁서류	-11.6289
▁전해지는	-11.629
▁개가	-11.629
깊	-11.6291
▁추상	-11.6291
▁염색체	-11.6291
▁대법관	-11.6291
▁적군	-11.6293
▁하행	-11.6293
_18	-11.6295
▁박종	-11.6295
기타	-11.6296
~16	-11.6296
르드	-11.6296
륵	-11.6296
▁옆면	-11.6297
▁역사의	-11.6298
▁제정된	-11.6298
▁협동	-11.6298
엑스	-11.63
▁비영리	-11.63
▁카드를	-11.6303
▁토끼	-11.6303
제도를	-11.6303
▁목판	-11.6304
▁이화	-11.6305
▁파기	-11.6305
셜	-11.6308
▁자제	-11.6308
▁레스토랑	-11.6308
▁마오쩌둥	-11.6308
▁중심지로	-11.6309
▁시신	-11.631
제주	-11.6311
이니	-11.6311
바퀴	-11.6312
퉁	-11.6313
▁찰리	-11.6315
▁제목은	-11.6316
▁주연을	-11.6316
▁스폰서	-11.6317
▁클린턴	-11.6317
▁향토문화유산	-11.6317
▁수여받았다	-11.6319
▁예명	-11.6319
화하는	-11.632
▁이름과	-11.632
금속	-11.6324
어머니	-11.6325
디오	-11.6325
▁안테나	-11.6326
▁되던	-11.6326
▁항쟁	-11.6327
▁왕세자	-11.6327
▁의약품	-11.6327
면은	-11.633
하르	-11.6331
▁작가의	-11.6332
▁전략을	-11.6334
냈	-11.6334
▁거기	-11.6335
남동	-11.6335
▁남쪽은	-11.6335
▁se	-11.6336
▁티켓	-11.6336
▁하리	-11.6337
▁적용된다	-11.6337
▁정치학	-11.6337
긴다	-11.6338
▁병기	-11.6339
▁제도는	-11.6339
▁앤드루	-11.634
▁정이다	-11.6341
▁단점	-11.6343
▁아소	-11.6344
ual	-11.6345
▁영역에	-11.6346
▁생각이	-11.6346
▁불참	-11.6347
▁金	-11.6347
▁반지	-11.6347
▁아랫	-11.6348
▁10,000	-11.6348
▁못하다	-11.6348
▁미카	-11.635
▁주한	-11.6351
뚜	-11.6351
쭉	-11.6351
코마	-11.6351
試	-11.6352
▁소피아	-11.6352
▁시흥	-11.6352
▁겹쳐	-11.6352
▁피고	-11.6353
▁들어왔다	-11.6353
FA	-11.6353
NP	-11.6354
▁도스	-11.6354
▁겪는	-11.6354
▁주관하는	-11.6354
▁닭	-11.6354
력에	-11.6355
기반	-11.6357
▁이뤄진	-11.6357
▁천하	-11.6358
mus	-11.6359
▁받아들이	-11.636
긋	-11.636
▁휩쓸	-11.636
▁출연하여	-11.6361
▁테리	-11.6361
▁발견되어	-11.6362
()"	-11.6362
▁대출	-11.6362
표준	-11.6363
▁가르침	-11.6363
직으로	-11.6363
▁겪고	-11.6363
▁Art	-11.6363
▁가리지	-11.6364
▁Pla	-11.6365
▁War	-11.6366
▁아이폰	-11.6366
▁오차	-11.6368
▁판매하는	-11.6369
파로	-11.6369
爲	-11.637
▁높이가	-11.6372
▁음반으로	-11.6372
▁동네	-11.6374
▁결별	-11.6375
▁남산	-11.6376
▁AT	-11.6377
齊	-11.6377
少	-11.6378
2000	-11.6378
As	-11.6379
▁관세	-11.6379
▁교육과정	-11.638
왕조	-11.6381
바인	-11.6381
▁의무를	-11.6382
▁클레	-11.6382
▁찾고	-11.6383
▁매치	-11.6383
사진	-11.6384
▁모리스	-11.6385
티에	-11.6386
▁신종	-11.6387
So	-11.6387
▁포터	-11.6387
▁선임되었다	-11.6389
▁언론에	-11.6391
세요	-11.6391
▁압도적인	-11.6392
▁기간이	-11.6394
▁작가로	-11.6394
▁만들어낸	-11.6395
▁클리블랜드	-11.6395
▁휴가	-11.6395
▁죽음에	-11.6395
▁삼층석탑	-11.6395
▁맥스	-11.6398
▁태생	-11.6398
▁발견하고	-11.6399
own	-11.6401
파스	-11.6401
하늘	-11.6403
SO	-11.6403
▁솔루션	-11.6403
력의	-11.6404
▁리옹	-11.6405
▁도입한	-11.6406
▁나라에	-11.6407
▁현상은	-11.6407
Sh	-11.641
▁강조했다	-11.641
남면	-11.6411
▁딕	-11.6411
색은	-11.6412
봐	-11.6413
ensis	-11.6413
▁다스리	-11.6414
순위로	-11.6415
▁조직이	-11.6415
▁영지를	-11.6417
▁활동하며	-11.6417
▁양성자	-11.6417
시온	-11.6418
▁시마	-11.6418
▁충북	-11.6419
▁연동	-11.6419
▁부조	-11.642
▁가사를	-11.642
富	-11.6421
▁포르투	-11.6421
▁심하게	-11.6422
▁다이어	-11.6423
▁김명	-11.6427
▁조르	-11.6429
ett	-11.6429
▁볼셰비키	-11.643
쟈	-11.643
▁만들어져	-11.643
프와	-11.6431
▁코치를	-11.6431
▁상용	-11.6432
▁내면	-11.6432
나비	-11.6433
▁혼란을	-11.6435
▁여겨지는	-11.6435
운전	-11.6436
▁것입니다	-11.6437
▁개인적	-11.6438
녜	-11.6438
系	-11.6438
제조	-11.6438
▁실존	-11.6439
▁물체의	-11.644
▁계몽	-11.644
▁활발하게	-11.644
음반	-11.6441
▁칼럼	-11.6441
▁이소	-11.6442
▁운영을	-11.6443
▁중형	-11.6445
▁메타	-11.6447
運	-11.6447
▁쉽지	-11.6447
▁짧고	-11.6447
▁헬리콥터	-11.6447
app	-11.6449
법률	-11.6449
▁곳곳에	-11.6451
▁수록되었다	-11.6453
▁가져다	-11.6453
ole	-11.6453
▁치른	-11.6453
준비	-11.6455
▁삼척	-11.6456
▁별이	-11.6457
▁정세	-11.6457
▁김준	-11.6458
링크	-11.6458
▁놀라	-11.6458
▁위그	-11.6459
▁누이	-11.6459
▁나타낸	-11.646
▁사업자	-11.6461
▁게임에	-11.6461
▁정상에	-11.6462
레인저	-11.6463
현동	-11.6463
▁문과	-11.6467
▁중엽	-11.647
▁분류군	-11.647
▁찌	-11.647
▁플라톤	-11.6472
▁마디	-11.6473
자나	-11.6473
▁전복	-11.6473
▁오바마	-11.6473
▁습지	-11.6473
청사	-11.6474
▁미루어	-11.6474
▁벨트	-11.6475
했음에도	-11.6476
레이스	-11.6476
▁at	-11.6476
▁살아있는	-11.6476
츠의	-11.6476
▁인간을	-11.6477
tin	-11.6478
▁러시아와	-11.6478
▁장벽	-11.648
▁발표하고	-11.6483
▁vs	-11.6484
eu	-11.6485
▁선원	-11.6488
▁프랑스가	-11.6488
▁도쿄에서	-11.6488
fa	-11.6489
▁오락	-11.6489
▁건설을	-11.649
▁모색	-11.649
2018	-11.649
~1	-11.649
톈	-11.6491
괘	-11.6491
▁미드	-11.6492
ert	-11.6493
▁선구자	-11.6493
▁행동에	-11.6493
외교	-11.6493
받게	-11.6494
Sa	-11.6494
있게	-11.6497
▁온건	-11.6497
▁배속	-11.6498
span	-11.65
▁사후에	-11.6501
▁몸통	-11.6502
▁죽게	-11.6503
NT	-11.6503
튜	-11.6503
▁관련해	-11.6507
▁작가들	-11.6507
▁사랑에	-11.6507
▁유래되었다	-11.6507
▁버전을	-11.6509
▁or	-11.6509
것은	-11.6509
[...]
